<unk>	0
<s>	0
</s>	0
▁the	-3.28191
,	-3.36228
.	-3.43022
s	-3.83739
▁a	-3.84274
▁and	-3.90401
▁of	-3.97915
▁to	-4.05181
'	-4.11252
▁is	-4.27689
br	-4.30357
▁in	-4.46247
▁I	-4.5302
▁it	-4.55225
▁that	-4.70481
▁this	-4.79839
▁/><	-5.00548
t	-5.02479
▁/>	-5.04113
▁was	-5.04316
▁movie	-5.09302
-	-5.10554
▁	-5.16332
▁with	-5.20033
▁for	-5.20131
▁film	-5.22687
▁as	-5.28989
.<	-5.29341
▁The	-5.39133
▁but	-5.39935
▁on	-5.44148
▁you	-5.46877
▁"	-5.4899
▁(	-5.51817
▁are	-5.57077
▁have	-5.60731
▁be	-5.61404
▁not	-5.61548
▁his	-5.66996
▁one	-5.70786
"	-5.72584
▁he	-5.79405
▁all	-5.87424
▁by	-5.88297
▁an	-5.90278
▁at	-5.91463
)	-5.95163
▁who	-5.95703
▁like	-5.96079
▁from	-5.98419
▁they	-5.99475
▁so	-6.03266
▁out	-6.10113
▁about	-6.10453
ing	-6.12004
▁just	-6.12723
▁has	-6.13836
▁It	-6.14008
▁or	-6.14265
▁her	-6.1465
▁good	-6.24653
▁can	-6.25381
▁some	-6.26588
▁more	-6.31927
▁very	-6.33164
!	-6.35085
▁This	-6.37958
ed	-6.38254
▁what	-6.40222
▁time	-6.40884
▁up	-6.41043
▁would	-6.42339
d	-6.42685
▁there	-6.42733
?	-6.45466
▁see	-6.4868
The	-6.4886
▁really	-6.49089
▁story	-6.49699
▁me	-6.49918
▁when	-6.50262
▁if	-6.51462
▁only	-6.53265
▁had	-6.54067
▁their	-6.55051
▁no	-6.55126
▁my	-6.55288
▁even	-6.55959
▁were	-6.56844
▁she	-6.58573
▁which	-6.59916
ly	-6.64698
▁than	-6.67839
▁much	-6.68841
▁-	-6.68851
▁get	-6.70477
▁been	-6.72259
I	-6.72922
m	-6.73126
▁bad	-6.73667
▁do	-6.74181
▁other	-6.74794
:	-6.75013
▁well	-6.75082
...	-6.75268
▁people	-6.75402
▁will	-6.75603
▁great	-6.76206
▁into	-6.77771
▁we	-6.80391
▁because	-6.80863
▁him	-6.81655
▁make	-6.83938
▁made	-6.85073
▁first	-6.86894
▁most	-6.87017
▁way	-6.87502
▁could	-6.88497
y	-6.9011
▁don	-6.90511
▁how	-6.90623
▁them	-6.91402
▁also	-6.92039
▁think	-6.93592
▁A	-6.93631
▁too	-6.94803
▁any	-6.95844
re	-6.96179
▁character	-6.97601
▁characters	-6.98025
▁seen	-6.99776
▁watch	-7.00277
▁movies	-7.01591
▁plot	-7.03623
ve	-7.04335
▁over	-7.05332
▁acting	-7.05733
▁then	-7.07191
▁show	-7.07429
▁know	-7.07985
er	-7.084
▁many	-7.08855
▁But	-7.09007
▁'	-7.09879
▁being	-7.10022
▁love	-7.10433
▁two	-7.11635
▁never	-7.12486
;	-7.12639
e	-7.13146
▁did	-7.13689
▁<	-7.14463
▁And	-7.14566
▁i	-7.14597
▁ever	-7.14677
▁best	-7.14896
▁life	-7.14901
▁little	-7.15401
▁films	-7.15521
▁better	-7.17294
▁after	-7.18047
▁your	-7.18941
▁off	-7.19248
▁where	-7.19337
▁end	-7.21466
▁say	-7.22304
▁does	-7.22339
▁its	-7.23115
a	-7.24933
▁scene	-7.25165
▁He	-7.27035
▁In	-7.29934
▁scenes	-7.31794
▁There	-7.32352
▁go	-7.33006
▁still	-7.33307
▁should	-7.34049
▁man	-7.34468
▁back	-7.34888
▁here	-7.35831
▁something	-7.36595
).	-7.37418
▁through	-7.38269
▁such	-7.39312
),	-7.39392
▁thing	-7.40012
▁these	-7.41227
▁If	-7.41543
▁watching	-7.41907
<	-7.42851
/	-7.43029
▁real	-7.43116
▁actors	-7.43994
▁didn	-7.4416
▁funny	-7.44259
▁doesn	-7.44599
▁those	-7.4584
▁work	-7.47251
ll	-7.47474
▁years	-7.48653
▁find	-7.49217
▁lot	-7.504
in	-7.51413
▁going	-7.5417
▁look	-7.54197
▁few	-7.54398
▁actually	-7.5454
▁same	-7.54599
▁makes	-7.56121
▁old	-7.56287
▁part	-7.56452
S	-7.56853
▁cast	-7.57375
▁before	-7.58232
▁want	-7.59733
▁why	-7.61168
▁though	-7.61434
▁director	-7.6234
▁while	-7.62442
and	-7.62448
▁nothing	-7.6276
▁again	-7.63395
▁pretty	-7.65068
▁thought	-7.6513
▁another	-7.65272
▁every	-7.65616
▁down	-7.6622
▁quite	-7.66267
▁got	-7.67683
▁fact	-7.67974
▁around	-7.69091
the	-7.7009
▁enough	-7.70302
▁seems	-7.71587
▁things	-7.7162
▁give	-7.71741
or	-7.72321
n	-7.73266
▁horror	-7.73636
▁take	-7.73735
▁long	-7.7479
A	-7.7483
▁own	-7.75487
▁saw	-7.75496
▁world	-7.75881
▁role	-7.76203
▁young	-7.76366
▁must	-7.76626
▁now	-7.77182
▁between	-7.77672
▁script	-7.77881
▁action	-7.78
▁right	-7.78701
▁interesting	-7.78962
▁original	-7.79303
▁comedy	-7.79466
▁music	-7.79587
▁&	-7.79598
▁always	-7.7981
▁bit	-7.79916
▁whole	-7.80006
▁series	-7.80118
▁us	-7.8029
▁isn	-7.80426
▁least	-7.80884
▁come	-7.82445
▁done	-7.82545
▁may	-7.82812
▁far	-7.83003
▁new	-7.83329
▁point	-7.83365
▁big	-7.83818
▁guy	-7.83925
▁feel	-7.83929
▁minutes	-7.84892
▁They	-7.85412
▁almost	-7.85801
▁without	-7.86058
▁gets	-7.86151
▁times	-7.86777
al	-7.8682
▁You	-7.87045
▁both	-7.87124
▁might	-7.87185
r	-7.88675
▁kind	-7.89211
▁performance	-7.89236
▁am	-7.89387
▁anything	-7.89704
▁fun	-7.89836
i	-7.90562
▁family	-7.91057
▁TV	-7.92734
▁She	-7.94262
▁found	-7.95162
▁last	-7.95617
This	-7.96194
o	-7.96204
▁As	-7.97408
▁away	-7.9743
▁probably	-7.97442
▁worst	-7.97729
▁girl	-7.98028
▁DVD	-7.98596
▁What	-7.98897
es	-7.99425
▁hard	-7.99443
▁since	-7.99626
▁believe	-7.99989
--	-8.01246
▁anyone	-8.01992
▁woman	-8.02337
▁making	-8.03046
▁rather	-8.03467
▁So	-8.03913
▁B	-8.03975
▁screen	-8.0419
▁ending	-8.04828
▁course	-8.05106
▁trying	-8.05357
▁each	-8.06262
▁put	-8.06654
▁book	-8.07025
▁watched	-8.07147
▁reason	-8.0783
▁worth	-8.08028
▁That	-8.08825
▁played	-8.09094
▁different	-8.09311
▁main	-8.09484
▁goes	-8.09557
▁sense	-8.09849
▁sure	-8.10074
▁actor	-8.10452
▁place	-8.10497
▁set	-8.10651
▁S	-8.1076
▁wasn	-8.10866
▁money	-8.11008
▁play	-8.1145
▁job	-8.11456
▁effects	-8.12647
▁our	-8.12821
▁comes	-8.12835
▁day	-8.13896
▁looking	-8.13964
it	-8.13992
▁yet	-8.1419
(	-8.14427
▁shows	-8.1476
man	-8.14833
▁fan	-8.15757
▁seem	-8.16102
▁together	-8.1641
▁plays	-8.16474
It	-8.16704
▁someone	-8.1741
▁audience	-8.17984
▁un	-8.18174
▁When	-8.18417
▁re	-8.18699
▁looks	-8.18716
▁true	-8.18993
",	-8.19026
▁idea	-8.19084
▁said	-8.19141
▁having	-8.19215
▁special	-8.19542
th	-8.19582
▁version	-8.19732
on	-8.19792
▁especially	-8.20796
▁half	-8.211
▁2	-8.21572
▁American	-8.22024
▁beautiful	-8.22469
▁left	-8.22562
▁three	-8.22757
▁short	-8.22851
▁else	-8.23164
▁excellent	-8.23263
▁seeing	-8.23781
▁We	-8.23907
▁everything	-8.24371
▁takes	-8.24563
▁high	-8.25437
▁himself	-8.25912
▁mind	-8.26103
▁everyone	-8.2636
▁wife	-8.26726
▁For	-8.26804
▁shot	-8.26949
▁year	-8.27217
▁John	-8.27267
▁read	-8.28148
▁10	-8.28289
▁during	-8.2916
▁completely	-8.29755
▁once	-8.30477
▁recommend	-8.30491
▁nice	-8.30851
▁used	-8.31033
▁later	-8.31058
▁enjoy	-8.31292
".	-8.31337
▁Not	-8.31775
▁poor	-8.32233
C	-8.32286
▁help	-8.32304
▁home	-8.32782
▁need	-8.33069
▁One	-8.3307
▁low	-8.3318
▁boring	-8.33291
T	-8.34348
▁father	-8.3441
▁simply	-8.34698
l	-8.34847
▁wrong	-8.35105
▁rest	-8.35134
▁stupid	-8.35271
▁line	-8.35759
▁let	-8.35954
▁start	-8.36323
▁understand	-8.36619
▁Hollywood	-8.36655
▁classic	-8.37107
▁use	-8.37346
▁try	-8.37446
▁camera	-8.37525
▁less	-8.3757
▁production	-8.37576
▁kids	-8.37724
▁mean	-8.37784
▁couple	-8.38269
D	-8.38277
▁school	-8.38298
▁second	-8.38653
▁friends	-8.38885
▁tell	-8.38926
▁performances	-8.39236
▁either	-8.3959
▁night	-8.39618
▁budget	-8.40131
▁awful	-8.40239
▁sex	-8.40402
▁However	-8.40947
▁To	-8.41292
▁came	-8.41332
▁No	-8.41828
▁person	-8.41965
▁women	-8.41987
▁My	-8.42236
▁All	-8.42315
▁along	-8.42594
▁won	-8.42706
to	-8.42871
▁death	-8.429
ness	-8.43114
▁truly	-8.43183
as	-8.43439
▁remember	-8.44096
▁until	-8.44223
▁--	-8.44317
▁F	-8.4436
▁given	-8.44462
▁video	-8.44635
▁keep	-8.45069
▁terrible	-8.45091
▁episode	-8.453
▁getting	-8.45333
▁top	-8.45426
▁full	-8.45522
an	-8.45525
▁war	-8.45565
▁moments	-8.45632
▁head	-8.45697
▁men	-8.4621
▁itself	-8.46907
▁laugh	-8.46948
c	-8.4698
ers	-8.47085
▁black	-8.4722
▁under	-8.47244
▁instead	-8.47279
."	-8.47401
▁piece	-8.47535
▁name	-8.47784
▁dialogue	-8.47824
▁wonderful	-8.47895
P	-8.48707
▁small	-8.49065
le	-8.49154
▁human	-8.49774
▁couldn	-8.5024
▁face	-8.50316
▁next	-8.50667
▁playing	-8.50896
▁doing	-8.51118
▁perfect	-8.51347
▁went	-8.51449
▁C	-8.51582
▁waste	-8.51899
g	-8.52044
▁lines	-8.52121
▁entertaining	-8.52197
B	-8.52241
▁liked	-8.52517
▁mother	-8.52967
▁3	-8.53949
▁however	-8.54355
▁friend	-8.54368
ic	-8.54373
▁sort	-8.54477
k	-8.54604
up	-8.54655
▁often	-8.54775
▁early	-8.55336
▁live	-8.55533
▁case	-8.55539
▁maybe	-8.55598
▁absolutely	-8.55751
▁style	-8.56036
▁worse	-8.56262
▁house	-8.56611
▁felt	-8.56681
▁gives	-8.56957
▁stars	-8.57058
▁title	-8.57181
▁Well	-8.57371
▁definitely	-8.5751
▁children	-8.57582
▁humor	-8.57818
▁become	-8.57843
▁At	-8.57926
▁T	-8.57991
▁supposed	-8.58075
▁THE	-8.58655
▁loved	-8.59039
▁drama	-8.5913
▁star	-8.59222
▁lead	-8.59367
▁direction	-8.59472
▁entire	-8.59633
▁beginning	-8.59695
▁cinema	-8.59846
▁care	-8.60115
▁picture	-8.60291
▁hope	-8.60542
▁Even	-8.60908
▁seemed	-8.61036
▁written	-8.61252
▁problem	-8.61805
▁certainly	-8.6222
▁car	-8.62259
▁sound	-8.62367
▁flick	-8.62536
▁P	-8.62571
▁boy	-8.63259
▁After	-8.63557
In	-8.63965
▁game	-8.63973
▁several	-8.64245
▁totally	-8.64599
▁guys	-8.64718
en	-8.64817
▁turn	-8.65023
▁guess	-8.65113
▁wanted	-8.65435
▁example	-8.65581
▁fine	-8.65985
▁Mr	-8.66491
▁quality	-8.67307
▁others	-8.67391
!<	-8.67608
▁already	-8.68188
▁against	-8.68228
▁called	-8.68518
▁past	-8.68859
▁although	-8.68958
▁enjoyed	-8.69213
▁side	-8.69225
▁heart	-8.69233
▁expect	-8.69496
el	-8.69556
▁writing	-8.69566
▁able	-8.70213
▁based	-8.70528
▁lives	-8.7054
▁fans	-8.70694
▁Don	-8.70773
K	-8.7082
▁His	-8.70875
h	-8.7104
▁gave	-8.714
▁favorite	-8.71695
▁dead	-8.71764
▁matter	-8.72216
▁horrible	-8.72569
b	-8.72592
▁stuff	-8.72622
▁today	-8.7284
▁becomes	-8.73229
▁amazing	-8.7325
ie	-8.73271
▁viewer	-8.7333
▁etc	-8.73674
▁lost	-8.73674
▁close	-8.73676
▁throughout	-8.74212
▁tries	-8.74666
▁O	-8.74837
▁run	-8.74896
G	-8.75049
▁D	-8.75093
▁town	-8.75284
▁E	-8.75452
is	-8.75774
▁hand	-8.75993
u	-8.76077
▁history	-8.76119
▁act	-8.76138
▁son	-8.76158
▁genre	-8.76376
able	-8.77027
▁1	-8.77238
▁myself	-8.77867
▁New	-8.77881
▁slow	-8.77978
but	-8.78631
▁final	-8.79093
▁Michael	-8.79172
p	-8.79175
If	-8.7922
▁wants	-8.79259
▁group	-8.79613
▁late	-8.79639
▁decent	-8.79891
▁killer	-8.79945
▁Also	-8.80187
▁child	-8.80233
▁days	-8.80496
▁finally	-8.80538
▁themselves	-8.80701
▁parts	-8.80857
▁works	-8.80877
▁kid	-8.80899
▁dark	-8.81096
▁With	-8.81111
▁brilliant	-8.81569
There	-8.81835
▁thinking	-8.82091
▁turns	-8.82325
▁heard	-8.82419
▁killed	-8.82493
▁feeling	-8.82982
▁experience	-8.83072
▁art	-8.83075
▁self	-8.83093
▁Some	-8.83308
▁type	-8.83476
▁voice	-8.83685
▁daughter	-8.84127
▁took	-8.84223
▁Of	-8.84266
▁behind	-8.84403
▁actress	-8.8443
▁happen	-8.84687
▁How	-8.84854
▁hour	-8.8499
ity	-8.85126
▁Then	-8.85131
R	-8.85149
▁Why	-8.8522
▁crap	-8.85224
▁lack	-8.85764
▁evil	-8.85767
▁kill	-8.85784
▁starts	-8.85885
▁happens	-8.86284
il	-8.86547
out	-8.86649
▁eyes	-8.86779
▁involved	-8.8684
W	-8.8706
▁fight	-8.87075
▁white	-8.87299
▁chance	-8.87591
▁interest	-8.87701
▁hit	-8.87725
▁While	-8.87782
▁looked	-8.87972
▁sad	-8.88055
▁directed	-8.88064
▁G	-8.8845
!!	-8.88538
L	-8.88631
▁wonder	-8.89028
▁ago	-8.89065
ation	-8.89339
▁score	-8.89431
▁moment	-8.89457
f	-8.89573
▁hilarious	-8.89712
▁told	-8.8983
▁attempt	-8.89948
▁wouldn	-8.89948
▁extremely	-8.89979
▁girls	-8.90007
▁5	-8.90107
▁stories	-8.90273
▁Man	-8.90435
▁perhaps	-8.90566
▁simple	-8.90653
▁cannot	-8.90767
M	-8.90902
▁de	-8.90928
▁husband	-8.91416
la	-8.91466
▁cool	-8.91595
▁happened	-8.91632
).<	-8.91659
ist	-8.91716
▁obvious	-8.92045
▁coming	-8.92196
▁strong	-8.92327
E	-8.92509
ri	-8.92764
▁cut	-8.9305
▁complete	-8.9306
▁4	-8.93134
▁leave	-8.9325
▁annoying	-8.93401
▁violence	-8.93505
▁stop	-8.93509
▁Now	-8.93585
▁soon	-8.93669
▁roles	-8.93736
▁shown	-8.94216
F	-8.9433
▁highly	-8.94476
▁yourself	-8.94679
▁opinion	-8.94814
▁career	-8.95048
▁song	-8.95551
▁talent	-8.95726
▁serious	-8.96077
▁K	-8.96182
▁jokes	-8.96183
▁brother	-8.96662
▁English	-8.96739
▁released	-8.9687
▁David	-8.96901
▁relationship	-8.96902
▁ridiculous	-8.96997
▁Just	-8.97146
▁known	-8.9722
▁obviously	-8.97391
▁cinematography	-8.97411
▁huge	-8.97476
▁disappointed	-8.97492
▁taken	-8.97907
▁wish	-8.9804
But	-8.9813
▁writer	-8.98344
U	-8.98579
▁cheap	-8.98646
▁local	-8.99051
N	-8.99109
▁across	-8.99257
▁sometimes	-8.99351
▁word	-8.99505
▁light	-8.99521
no	-8.99594
▁started	-8.99728
▁call	-8.99876
▁documentary	-9.0008
▁says	-9.00157
▁gore	-9.0018
▁save	-9.00188
▁hours	-9.00213
▁saying	-9.0027
▁blood	-9.00317
▁James	-9.00354
like	-9.00403
And	-9.00443
▁usual	-9.00589
!!!	-9.00656
us	-9.00673
▁particularly	-9.0091
▁view	-9.01
▁R	-9.01061
▁order	-9.01258
▁female	-9.01449
▁attention	-9.01489
▁exactly	-9.01637
▁change	-9.01764
▁age	-9.024
at	-9.02568
▁possible	-9.02592
▁team	-9.02674
ro	-9.0283
▁number	-9.02873
▁non	-9.03005
▁Robert	-9.03044
▁level	-9.0312
▁murder	-9.03231
▁opening	-9.03234
▁knew	-9.03378
▁reality	-9.03719
▁20	-9.03724
▁silly	-9.03932
▁novel	-9.04173
one	-9.04177
O	-9.04339
▁turned	-9.04396
▁somewhat	-9.04875
ment	-9.0498
▁De	-9.05198
▁single	-9.05444
▁important	-9.05454
▁dialog	-9.0577
▁Jack	-9.0581
he	-9.05813
▁alone	-9.06185
*	-9.06371
▁musical	-9.06421
ch	-9.06702
▁shots	-9.06842
▁running	-9.06968
▁co	-9.06978
▁living	-9.0703
▁ten	-9.07066
▁OK	-9.07067
▁except	-9.07107
▁usually	-9.07232
▁W	-9.07467
▁police	-9.07549
less	-9.07693
▁country	-9.07725
▁hero	-9.07741
▁predictable	-9.07916
▁television	-9.07978
▁due	-9.08093
▁body	-9.0815
▁enjoyable	-9.08261
▁near	-9.08481
▁soundtrack	-9.08487
▁whose	-9.08595
w	-9.08839
which	-9.08888
ur	-9.08965
who	-9.09042
▁subject	-9.09361
▁hell	-9.09485
▁An	-9.09499
fi	-9.09502
!"	-9.09597
▁dull	-9.09672
▁episodes	-9.09718
▁words	-9.09924
▁taking	-9.10036
▁middle	-9.10192
▁talking	-9.10609
▁clich	-9.10618
▁On	-9.10773
▁romantic	-9.10799
z	-9.10802
▁among	-9.10869
▁British	-9.11055
▁Dr	-9.11135
ies	-9.11175
▁L	-9.11185
▁review	-9.11286
▁clear	-9.11331
ling	-9.11361
▁despite	-9.11408
▁room	-9.11411
▁power	-9.11635
ton	-9.11638
▁scary	-9.11686
▁sequel	-9.11788
▁modern	-9.12157
▁problems	-9.12212
▁hate	-9.12242
▁strange	-9.12345
▁eye	-9.1248
▁storyline	-9.12537
▁surprised	-9.12648
▁aren	-9.12693
ar	-9.12715
▁seriously	-9.12748
▁major	-9.12775
▁events	-9.12781
▁mention	-9.12797
▁including	-9.13049
ter	-9.13356
▁comic	-9.13686
▁happy	-9.13766
▁haven	-9.13961
▁doubt	-9.13968
▁songs	-9.13977
▁sequence	-9.14005
3	-9.14168
▁similar	-9.14626
ine	-9.14727
▁George	-9.14749
na	-9.14798
▁mostly	-9.14957
▁beyond	-9.1525
son	-9.15311
▁bring	-9.15341
▁future	-9.15383
est	-9.15423
▁message	-9.1551
▁material	-9.15528
▁stand	-9.15579
▁effort	-9.15817
▁buy	-9.1593
▁J	-9.15933
▁entertainment	-9.16236
▁hear	-9.16346
▁above	-9.1657
▁bunch	-9.16711
▁fast	-9.16726
ty	-9.16781
▁thriller	-9.16854
▁ends	-9.1686
▁tried	-9.17212
▁straight	-9.17431
be	-9.17582
▁fall	-9.17606
▁Although	-9.17699
ion	-9.17746
ting	-9.17751
▁certain	-9.17923
un	-9.18047
ian	-9.18061
▁H	-9.18075
▁moving	-9.181
if	-9.18151
▁four	-9.18265
▁release	-9.18377
▁tells	-9.1855
Y	-9.18593
▁class	-9.1865
▁giving	-9.18945
▁rating	-9.19016
▁clearly	-9.1905
▁kept	-9.19126
▁viewing	-9.19139
▁God	-9.19177
ism	-9.19194
▁easily	-9.19198
▁talk	-9.19528
de	-9.19739
▁comments	-9.20169
▁suspense	-9.20214
▁premise	-9.20284
▁supporting	-9.20329
▁follow	-9.20381
▁finds	-9.20437
▁falls	-9.20438
▁upon	-9.20442
▁French	-9.20451
ry	-9.2056
▁decided	-9.20765
▁Re	-9.20936
▁deal	-9.2119
of	-9.21237
▁showing	-9.21244
▁weak	-9.21318
What	-9.21322
▁none	-9.214
▁sets	-9.21422
▁...	-9.2144
▁Oscar	-9.21491
ia	-9.21794
▁parents	-9.21819
▁theme	-9.21921
▁sister	-9.22017
▁appears	-9.22189
▁feature	-9.22291
▁believable	-9.22587
▁sit	-9.22843
▁add	-9.23162
▁period	-9.23255
▁reviews	-9.23317
▁Oh	-9.23333
▁overall	-9.23335
▁actual	-9.2338
▁easy	-9.23412
V	-9.23467
▁editing	-9.23491
As	-9.23506
▁realistic	-9.23662
▁needs	-9.23829
▁die	-9.23829
▁fantastic	-9.23841
H	-9.24306
▁move	-9.24454
age	-9.24504
▁working	-9.2464
▁form	-9.24648
▁theater	-9.24762
▁Richard	-9.24893
▁First	-9.24944
li	-9.2505
▁Maybe	-9.2507
▁typical	-9.25198
So	-9.25446
so	-9.25511
▁Her	-9.25561
▁Do	-9.25635
▁animation	-9.25822
ul	-9.25974
▁named	-9.26288
▁famous	-9.26306
▁Or	-9.26463
▁elements	-9.26473
ra	-9.26528
▁learn	-9.26644
▁U	-9.26842
▁lame	-9.26871
▁tale	-9.26996
▁free	-9.27101
▁greatest	-9.27115
▁Paul	-9.27158
▁knows	-9.27323
▁rent	-9.27443
ne	-9.27569
▁atmosphere	-9.27687
2	-9.2776
▁York	-9.27766
▁Tom	-9.27819
ish	-9.27859
▁brought	-9.28158
▁anyway	-9.28307
v	-9.28531
▁dog	-9.28537
▁viewers	-9.28776
▁expected	-9.28856
for	-9.28932
▁nearly	-9.28948
▁America	-9.28956
▁stay	-9.29086
▁M	-9.29403
▁figure	-9.29482
▁basically	-9.29592
▁average	-9.29622
▁spend	-9.29768
▁five	-9.29805
▁situation	-9.30023
ant	-9.30027
▁surprise	-9.30052
▁stage	-9.3007
▁filmed	-9.30206
▁male	-9.30211
▁crime	-9.30219
▁city	-9.30444
▁comment	-9.30524
▁means	-9.30531
▁using	-9.30639
▁sequences	-9.30646
▁poorly	-9.30652
▁herself	-9.30754
▁War	-9.3079
▁Peter	-9.30807
not	-9.30818
te	-9.31066
▁leads	-9.31256
▁copy	-9.3131
▁mess	-9.31421
▁within	-9.31454
▁particular	-9.31557
▁*	-9.31613
▁open	-9.3179
mo	-9.31826
▁romance	-9.32197
ce	-9.32258
▁Yes	-9.32344
▁forget	-9.32346
▁wait	-9.3235
!)	-9.32525
time	-9.32586
▁write	-9.32671
▁admit	-9.32744
?"	-9.32747
▁whether	-9.33001
▁weird	-9.33149
lo	-9.33226
▁killing	-9.33291
▁Unfortunately	-9.33442
▁ex	-9.33747
▁difficult	-9.33803
▁NOT	-9.3397
▁monster	-9.33999
▁From	-9.34142
▁begin	-9.34301
▁minute	-9.34312
▁became	-9.34331
▁Who	-9.34394
▁truth	-9.34426
ir	-9.34442
▁question	-9.34748
▁points	-9.34879
▁cheesy	-9.35088
▁joke	-9.35204
▁cop	-9.35586
▁forward	-9.35632
▁pay	-9.35989
▁interested	-9.36037
▁imagine	-9.36046
▁footage	-9.3611
▁unique	-9.36196
▁superb	-9.36471
▁gay	-9.36487
▁reading	-9.36494
▁feels	-9.36534
▁begins	-9.36748
▁needed	-9.36748
ge	-9.36814
▁crew	-9.3682
1	-9.36836
▁gone	-9.37003
▁box	-9.37023
do	-9.37069
▁dumb	-9.37147
ally	-9.37307
▁apparently	-9.37479
▁forced	-9.37603
▁check	-9.37837
▁agree	-9.37877
▁result	-9.38275
▁Most	-9.38343
▁dance	-9.38515
▁please	-9.38532
▁realize	-9.38542
am	-9.38572
▁Lee	-9.38667
▁masterpiece	-9.39062
▁dream	-9.39079
▁effect	-9.39195
▁memorable	-9.39225
▁emotional	-9.39234
▁girlfriend	-9.39271
▁sexual	-9.39406
▁credits	-9.39425
▁Disney	-9.39514
▁Like	-9.3961
▁King	-9.39612
▁previous	-9.39625
▁air	-9.397
▁hot	-9.39911
▁development	-9.40025
▁somehow	-9.40097
old	-9.40433
▁screenplay	-9.40474
▁8	-9.40513
▁features	-9.40527
▁space	-9.40623
▁IMDb	-9.4065
▁laughs	-9.40719
▁mystery	-9.40758
▁leaves	-9.40764
▁La	-9.40919
▁shame	-9.40949
▁society	-9.41005
▁rich	-9.4107
ma	-9.41193
▁background	-9.41311
go	-9.41399
▁acted	-9.41603
ner	-9.41686
▁setting	-9.4171
se	-9.41721
▁badly	-9.41792
▁cover	-9.41971
▁perfectly	-9.42039
▁nature	-9.42227
▁incredibly	-9.42262
▁ways	-9.42427
▁deep	-9.42437
My	-9.42452
▁30	-9.42623
▁season	-9.42626
ol	-9.42719
▁personal	-9.42738
ha	-9.4295
▁business	-9.42974
▁possibly	-9.43015
▁general	-9.43056
▁break	-9.4316
▁quickly	-9.43254
▁miss	-9.43337
co	-9.43357
▁list	-9.43396
ke	-9.43476
▁worked	-9.43629
▁meets	-9.43637
▁keeps	-9.43717
▁front	-9.44193
▁creepy	-9.4422
....	-9.44355
▁meet	-9.44385
▁plain	-9.44485
▁Italian	-9.44486
▁flat	-9.4456
off	-9.44699
▁wasted	-9.44722
▁Me	-9.44766
▁directing	-9.44783
▁appear	-9.44851
▁lots	-9.44936
▁spent	-9.45116
▁third	-9.45141
▁pre	-9.45155
▁water	-9.45477
▁deserves	-9.45617
")	-9.45619
▁earlier	-9.4577
▁b	-9.45856
▁expecting	-9.45862
▁portrayed	-9.4603
▁Ben	-9.46066
▁present	-9.46122
▁older	-9.46135
▁total	-9.46161
▁fire	-9.46208
5	-9.46351
▁Japanese	-9.46355
▁powerful	-9.46411
▁villain	-9.46431
▁fails	-9.46517
▁These	-9.46573
▁twist	-9.46854
▁fairly	-9.46901
▁sorry	-9.47053
▁N	-9.47306
▁Star	-9.47474
▁plenty	-9.47876
▁writers	-9.48012
▁ask	-9.48292
▁laughing	-9.48362
▁cute	-9.48488
land	-9.48595
▁inside	-9.48719
▁hands	-9.48799
▁success	-9.48914
ba	-9.48941
▁odd	-9.48973
ful	-9.49008
▁dramatic	-9.4936
▁sub	-9.49399
ted	-9.49486
▁post	-9.49538
All	-9.49599
▁various	-9.496
ous	-9.49652
▁public	-9.49714
▁nor	-9.4974
▁Go	-9.498
▁cartoon	-9.49819
▁leading	-9.49845
▁pace	-9.5003
▁era	-9.5006
▁beauty	-9.50187
▁create	-9.50283
▁talented	-9.50378
You	-9.50711
▁caught	-9.50878
▁brings	-9.51056
▁clever	-9.51339
▁towards	-9.51373
me	-9.51497
▁whom	-9.51589
bo	-9.51652
▁Black	-9.51774
▁German	-9.51869
▁eventually	-9.51884
▁remake	-9.52059
▁hold	-9.52085
▁potential	-9.52142
▁gun	-9.52169
▁appreciate	-9.52309
▁recently	-9.52382
▁missing	-9.52413
▁meant	-9.52515
▁manages	-9.52749
▁bar	-9.528
▁store	-9.52811
im	-9.52999
rs	-9.53092
▁rock	-9.53247
▁doctor	-9.53406
▁battle	-9.5352
▁ended	-9.5371
▁fighting	-9.5374
▁sick	-9.53917
▁7	-9.5399
▁value	-9.54024
da	-9.54113
▁Al	-9.54171
by	-9.54203
▁reasons	-9.54368
▁nudity	-9.54398
▁bored	-9.54456
▁sounds	-9.54488
▁By	-9.54497
▁visual	-9.54602
▁respect	-9.54662
▁bother	-9.54742
▁indeed	-9.54915
x	-9.54921
▁members	-9.55011
▁speak	-9.55143
▁Great	-9.55303
▁large	-9.55686
▁note	-9.55711
com	-9.55734
▁tension	-9.55743
▁crazy	-9.55971
▁attempts	-9.5601
▁pure	-9.56099
▁train	-9.56146
▁missed	-9.56244
▁language	-9.5628
em	-9.56349
dy	-9.56368
▁rate	-9.5642
▁portrayal	-9.56455
▁lady	-9.56483
▁yes	-9.56512
▁!	-9.56639
▁political	-9.56701
▁Here	-9.56779
▁waiting	-9.56792
▁hair	-9.56809
▁boys	-9.5697
▁telling	-9.57017
▁credit	-9.57146
this	-9.57186
▁common	-9.57212
▁William	-9.57358
▁amusing	-9.5742
▁anti	-9.57519
▁Scott	-9.57664
▁fake	-9.57753
▁trash	-9.5777
▁social	-9.57771
▁Joe	-9.57772
▁fit	-9.58039
▁familiar	-9.58045
ive	-9.58052
▁avoid	-9.58114
▁created	-9.58223
▁concept	-9.58254
▁casting	-9.58291
▁escape	-9.58424
▁culture	-9.58444
▁hardly	-9.58467
▁World	-9.58495
▁Film	-9.58581
▁slightly	-9.58617
▁Bill	-9.58703
▁pick	-9.58842
▁convincing	-9.58891
▁pointless	-9.58925
▁following	-9.59008
▁amount	-9.59369
▁married	-9.59678
▁US	-9.59749
▁outside	-9.5991
▁positive	-9.59958
▁wrote	-9.60023
▁Instead	-9.60026
?)	-9.60111
▁trip	-9.60169
▁trouble	-9.60428
ley	-9.60524
▁former	-9.60536
▁whatever	-9.60547
▁choice	-9.6057
per	-9.60574
▁filmmakers	-9.60647
▁incredible	-9.61099
movie	-9.6112
▁popular	-9.61384
▁mentioned	-9.61582
▁Good	-9.61623
▁brain	-9.61701
▁control	-9.61752
▁ideas	-9.61868
▁Movie	-9.6192
▁solid	-9.61948
▁college	-9.61958
ER	-9.61978
▁15	-9.62015
with	-9.62056
▁died	-9.62259
ti	-9.62288
▁intelligent	-9.62301
▁consider	-9.62316
▁decide	-9.62547
▁Love	-9.62559
▁Sam	-9.62655
▁super	-9.62826
▁appeal	-9.62951
▁bizarre	-9.63058
▁exciting	-9.63069
▁9	-9.6327
▁c	-9.63301
▁garbage	-9.63394
ized	-9.63437
▁Be	-9.63474
▁produced	-9.63544
well	-9.63708
▁humour	-9.63731
▁accent	-9.63735
▁fantasy	-9.63868
▁gang	-9.63996
▁party	-9.64086
One	-9.64128
▁follows	-9.6432
▁awesome	-9.64408
▁pathetic	-9.64449
▁Christmas	-9.64661
▁situations	-9.64698
▁decides	-9.64886
et	-9.64892
▁younger	-9.64899
▁drug	-9.64972
▁entirely	-9.65003
▁sci	-9.65003
▁sweet	-9.65208
all	-9.65211
▁match	-9.65233
▁directors	-9.65317
▁impressive	-9.65318
▁biggest	-9.65434
ent	-9.65889
▁glad	-9.65889
▁impression	-9.65894
▁unfortunately	-9.6609
▁unless	-9.66247
▁band	-9.66249
▁further	-9.66463
▁bought	-9.66581
▁depth	-9.66693
▁recent	-9.66812
▁Let	-9.66822
▁moves	-9.66822
▁project	-9.66878
▁dis	-9.66898
▁purpose	-9.66916
▁tough	-9.67037
▁conclusion	-9.67045
▁win	-9.67191
▁Van	-9.67192
▁6	-9.6724
▁Jane	-9.67279
▁company	-9.67407
▁successful	-9.67633
▁week	-9.67666
▁honest	-9.67767
▁effective	-9.67859
▁Sa	-9.67882
▁mood	-9.68011
id	-9.68098
▁con	-9.68236
ary	-9.68328
▁disturbing	-9.68468
▁chemistry	-9.68685
▁showed	-9.68716
▁producers	-9.6887
▁values	-9.69029
▁otherwise	-9.69079
▁weren	-9.69154
▁basic	-9.69269
▁dancing	-9.69435
▁charm	-9.69467
▁Bo	-9.69617
▁longer	-9.6962
▁filled	-9.69688
▁fear	-9.69722
ated	-9.69766
▁secret	-9.69795
ey	-9.69956
▁violent	-9.70004
▁images	-9.70007
um	-9.7012
▁changed	-9.70313
▁shooting	-9.70322
▁compared	-9.70475
▁adult	-9.70529
▁meaning	-9.70706
▁focus	-9.70808
▁/>"	-9.70811
For	-9.70943
▁studio	-9.70954
di	-9.70973
▁failed	-9.7105
▁slasher	-9.71131
▁Dead	-9.7117
▁Jim	-9.71367
▁street	-9.71403
▁cause	-9.7141
▁walk	-9.71427
▁earth	-9.71493
4	-9.71508
▁uses	-9.71793
▁90	-9.71997
▁camp	-9.72001
▁explain	-9.72002
ard	-9.72039
To	-9.72172
▁barely	-9.72211
▁cult	-9.72217
▁taste	-9.72237
▁loud	-9.72253
J	-9.72657
led	-9.72687
▁excuse	-9.72802
▁god	-9.72964
▁Mc	-9.73083
▁80'	-9.73119
▁considered	-9.73218
▁Le	-9.73407
▁questions	-9.73562
▁involving	-9.73661
▁baby	-9.74025
▁touch	-9.74056
hi	-9.74096
▁stick	-9.74249
ING	-9.74309
▁Ed	-9.7435
▁genius	-9.74362
▁shoot	-9.74474
that	-9.74516
line	-9.74702
sh	-9.74751
▁Perhaps	-9.74755
▁scenery	-9.74771
▁apart	-9.74904
▁kills	-9.74935
▁state	-9.75081
making	-9.75206
▁pass	-9.75211
▁impossible	-9.75281
▁twists	-9.75335
▁road	-9.75858
▁considering	-9.75906
▁singing	-9.75913
▁added	-9.7594
▁Jones	-9.75985
▁return	-9.76068
▁office	-9.76093
▁track	-9.76315
▁available	-9.76364
▁100	-9.76412
ta	-9.76531
▁smart	-9.76719
con	-9.76934
▁adventure	-9.77184
▁prison	-9.77212
lu	-9.7723
▁London	-9.77335
▁mad	-9.77369
ster	-9.77459
▁issues	-9.77571
▁Director	-9.77616
▁computer	-9.77662
▁standard	-9.77685
▁terrific	-9.77703
▁p	-9.77709
▁master	-9.77738
nd	-9.77777
▁City	-9.77884
▁appearance	-9.77912
▁charming	-9.77941
▁disappointment	-9.77966
▁sitting	-9.77983
ad	-9.7806
▁remind	-9.78172
▁normal	-9.78189
▁pain	-9.78226
▁island	-9.78272
ac	-9.78304
▁e	-9.78344
▁Ho	-9.78408
ni	-9.7854
▁Every	-9.7859
▁ground	-9.78694
▁disappointing	-9.7881
▁aspect	-9.78833
▁("	-9.78878
▁Very	-9.7888
▁cold	-9.78906
▁starring	-9.78928
▁photography	-9.79019
▁Another	-9.79093
▁Mary	-9.79161
▁rare	-9.79178
men	-9.79258
▁leaving	-9.79267
▁OF	-9.79291
▁cinematic	-9.79303
▁recommended	-9.79352
▁Night	-9.79366
▁century	-9.79429
▁sexy	-9.79441
▁ability	-9.79443
▁Charles	-9.79468
ag	-9.7953
▁immediately	-9.7955
▁cat	-9.79567
▁Best	-9.79701
▁spirit	-9.79714
▁suddenly	-9.79721
▁ship	-9.79801
even	-9.79875
▁managed	-9.79924
▁western	-9.80097
▁catch	-9.8016
▁subtle	-9.8022
les	-9.80248
▁suppose	-9.80294
▁House	-9.80442
▁tone	-9.80471
▁innocent	-9.80472
▁okay	-9.80502
over	-9.80537
▁neither	-9.80589
▁victim	-9.80617
▁fair	-9.80658
▁notice	-9.80758
▁Big	-9.80799
▁laughable	-9.80914
▁Smith	-9.81031
▁red	-9.8109
▁touching	-9.81224
▁adaptation	-9.81285
▁boyfriend	-9.81309
▁somewhere	-9.81336
▁finish	-9.81505
▁alive	-9.81618
▁manner	-9.81721
▁presence	-9.81794
▁climax	-9.81821
▁zombie	-9.81867
▁plus	-9.81957
▁silent	-9.82063
▁f	-9.82131
ck	-9.8217
▁St	-9.82172
▁support	-9.82214
▁unbelievable	-9.82336
▁door	-9.82354
▁comedies	-9.82367
pe	-9.82466
ho	-9.82545
▁fell	-9.82565
ate	-9.82618
▁nowhere	-9.82673
▁bed	-9.8285
▁terms	-9.82976
ci	-9.82988
ence	-9.83051
▁Frank	-9.83108
▁beautifully	-9.83246
▁painful	-9.83305
mi	-9.83349
▁complex	-9.83405
you	-9.83515
▁thrown	-9.83598
▁narrative	-9.83697
▁revenge	-9.83697
▁edge	-9.83844
▁details	-9.83884
▁happening	-9.8401
▁likely	-9.84093
▁Earth	-9.84144
▁books	-9.84206
we	-9.84268
▁Still	-9.84752
▁emotions	-9.85064
▁utterly	-9.85173
▁heavy	-9.85256
▁science	-9.85259
der	-9.85265
▁fresh	-9.85354
▁sent	-9.85374
▁animated	-9.85392
▁expectations	-9.85417
▁ultimately	-9.85428
her	-9.85469
▁remains	-9.85559
▁Can	-9.85678
▁80	-9.85736
▁journey	-9.85778
▁content	-9.85918
▁intended	-9.85954
7	-9.86014
▁outstanding	-9.86086
▁hoping	-9.86095
▁Watch	-9.86158
▁ride	-9.86201
▁costumes	-9.86351
▁lovely	-9.86394
▁mistake	-9.86423
▁tired	-9.86509
▁government	-9.86622
▁Na	-9.86642
tic	-9.86671
▁Ma	-9.86679
budget	-9.86758
▁runs	-9.86762
▁teen	-9.86766
▁building	-9.86795
▁soul	-9.86894
ler	-9.8692
▁rip	-9.86921
▁constantly	-9.86991
▁date	-9.86993
▁Ha	-9.87001
▁makers	-9.8708
▁shock	-9.87274
▁Indian	-9.87462
▁student	-9.87502
▁Only	-9.87569
▁surprisingly	-9.87597
▁generally	-9.87675
▁laughed	-9.87872
▁Con	-9.87905
lin	-9.87956
▁emotion	-9.87968
▁natural	-9.88065
▁soldiers	-9.88133
▁exception	-9.88192
▁Martin	-9.88193
▁suggest	-9.8822
way	-9.8828
ably	-9.88453
▁detective	-9.88788
▁literally	-9.88838
▁minor	-9.88913
▁magic	-9.89035
▁giant	-9.89201
▁stunning	-9.89215
▁spot	-9.89245
▁presented	-9.89312
▁force	-9.89395
▁Bruce	-9.894
▁Ray	-9.89407
▁Chris	-9.89724
▁stands	-9.89786
▁See	-9.89942
▁V	-9.90003
▁motion	-9.90085
▁sleep	-9.90228
▁historical	-9.90244
▁changes	-9.90249
▁fascinating	-9.90366
▁confusing	-9.90367
ah	-9.90368
▁brief	-9.90384
▁mysterious	-9.90531
▁names	-9.9054
▁compelling	-9.9066
▁drive	-9.90774
▁color	-9.90877
▁quick	-9.90974
▁gem	-9.91049
▁Two	-9.91088
ize	-9.91159
We	-9.91494
▁Li	-9.91502
▁serial	-9.91547
▁la	-9.91604
▁detail	-9.91624
ga	-9.91627
my	-9.91643
ier	-9.91689
▁Un	-9.91767
▁race	-9.91781
▁10.	-9.91791
▁phone	-9.91792
▁Though	-9.91826
▁People	-9.91936
ring	-9.91975
▁audiences	-9.91998
▁Da	-9.92028
vi	-9.92054
▁Because	-9.92067
▁pro	-9.92101
ig	-9.92187
▁slowly	-9.92248
▁offer	-9.92293
▁contains	-9.9233
▁mouth	-9.92389
▁Dan	-9.92551
▁moral	-9.9268
ating	-9.92684
▁Rock	-9.9274
▁fashion	-9.92875
▁marriage	-9.92892
▁military	-9.92928
▁students	-9.93038
▁Hitchcock	-9.93043
po	-9.93181
▁opportunity	-9.93194
▁Paris	-9.93262
▁include	-9.93318
▁aspects	-9.93392
▁fully	-9.93439
▁Bad	-9.93443
▁negative	-9.93496
▁South	-9.93549
▁pull	-9.93555
ance	-9.93568
▁direct	-9.93588
▁folks	-9.93615
▁chase	-9.9368
▁impressed	-9.937
ki	-9.93947
▁likable	-9.93951
▁Steve	-9.94016
▁equally	-9.94019
good	-9.9431
▁Overall	-9.9435
▁st	-9.94539
▁feelings	-9.94672
▁Charlie	-9.9478
▁Nothing	-9.948
▁knowing	-9.95166
▁station	-9.95202
ee	-9.95264
▁answer	-9.95345
▁themes	-9.95433
▁key	-9.95466
▁plan	-9.95498
▁rented	-9.95507
▁creative	-9.95514
ger	-9.95638
▁Anyway	-9.95643
mer	-9.95645
▁Will	-9.95653
▁50	-9.95696
▁Co	-9.957
▁disaster	-9.95793
▁hospital	-9.95793
▁Wood	-9.9585
▁shocking	-9.95877
▁mix	-9.95967
Don	-9.95973
ber	-9.96043
▁unlike	-9.96079
▁Harry	-9.96159
▁location	-9.96338
▁Sure	-9.96485
▁throw	-9.96517
▁double	-9.96588
▁system	-9.96727
▁collection	-9.96731
▁Stewart	-9.96761
▁difference	-9.96788
day	-9.96864
▁sight	-9.96887
▁wondering	-9.96899
▁Where	-9.96911
▁Tony	-9.96947
▁lived	-9.96966
▁appeared	-9.97009
▁extra	-9.97141
▁imagination	-9.97198
▁funniest	-9.97211
▁confused	-9.97383
▁share	-9.97428
▁trailer	-9.97453
▁Too	-9.97519
▁paid	-9.97545
▁anymore	-9.97557
op	-9.97615
▁Mo	-9.97626
▁process	-9.97671
▁producer	-9.97704
▁accept	-9.97737
▁vampire	-9.97773
▁sat	-9.97823
▁industry	-9.97828
9	-9.97895
▁gorgeous	-9.97986
▁developed	-9.98009
▁pieces	-9.98053
▁drawn	-9.98085
▁Russian	-9.98117
▁Mark	-9.98142
▁favourite	-9.98146
▁walking	-9.9843
▁club	-9.98499
Overall	-9.98528
When	-9.98688
▁flicks	-9.98773
▁compare	-9.9878
▁critics	-9.98942
ron	-9.99027
kin	-9.99061
▁boss	-9.99066
▁forever	-9.99077
▁mediocre	-9.99101
▁pleasure	-9.99101
▁reminded	-9.99158
house	-9.99176
que	-9.99252
▁cry	-9.99313
That	-9.99334
▁mainly	-9.99363
va	-9.9939
▁pop	-9.99409
▁opera	-9.99479
▁West	-9.9949
our	-9.99505
▁lighting	-9.99533
▁delivers	-9.99588
▁AND	-9.99626
ph	-9.99629
▁beat	-9.99667
▁channel	-9.99707
▁sea	-9.99722
what	-9.99784
ud	-9.99955
ow	-10.0003
▁attractive	-10.0008
▁acts	-10.0014
▁porn	-10.0018
▁superior	-10.0023
▁forgotten	-10.0026
▁affair	-10.0037
some	-10.0054
▁extreme	-10.0063
▁per	-10.0068
▁image	-10.0069
ab	-10.0092
▁land	-10.0117
▁Se	-10.0119
▁listen	-10.012
▁deliver	-10.012
▁attack	-10.0125
ney	-10.0133
ut	-10.0133
▁hasn	-10.0134
▁relationships	-10.0136
▁Day	-10.0139
▁Yet	-10.0142
▁lover	-10.0147
He	-10.0149
▁drugs	-10.016
▁stuck	-10.017
▁lacks	-10.0174
▁puts	-10.0186
▁oh	-10.0188
▁random	-10.019
▁mid	-10.0191
ten	-10.02
▁places	-10.0206
▁Many	-10.0212
▁Ro	-10.0215
year	-10.0217
▁information	-10.0219
▁honestly	-10.0221
▁dies	-10.0228
ak	-10.0233
▁holes	-10.0234
▁fellow	-10.0236
▁naked	-10.0239
▁finding	-10.0244
▁ho	-10.0249
▁suicide	-10.0254
▁fiction	-10.0257
os	-10.0259
▁allowed	-10.0267
▁adds	-10.0276
▁loose	-10.0282
▁tend	-10.0283
▁Red	-10.0285
▁intense	-10.0289
life	-10.029
▁member	-10.0293
▁flaws	-10.0301
▁accident	-10.0317
▁epic	-10.0319
▁everybody	-10.032
▁approach	-10.0343
▁impact	-10.0356
star	-10.0359
▁professional	-10.0361
film	-10.0362
▁twice	-10.0369
see	-10.0369
▁rated	-10.0369
ite	-10.037
▁40	-10.0381
▁adults	-10.0381
▁dad	-10.039
▁ready	-10.0394
▁Jean	-10.0395
tro	-10.0402
▁describe	-10.0409
▁scientist	-10.041
▁picked	-10.0412
▁torture	-10.042
▁nobody	-10.0422
▁addition	-10.043
▁tragic	-10.0439
▁12	-10.044
▁sh	-10.0452
▁victims	-10.0453
▁Despite	-10.0455
▁mine	-10.046
min	-10.0466
▁million	-10.0466
▁becoming	-10.0487
▁dreams	-10.0487
▁falling	-10.0488
▁Young	-10.049
▁Kelly	-10.049
▁ahead	-10.0492
▁build	-10.0495
▁offers	-10.0501
▁whatsoever	-10.0504
▁Billy	-10.0509
▁Di	-10.0518
▁step	-10.052
j	-10.052
▁joy	-10.0529
▁Ka	-10.0535
▁70	-10.0544
▁absurd	-10.0553
&	-10.0566
▁absolute	-10.0576
▁animals	-10.058
▁standards	-10.0581
▁Christopher	-10.0581
▁Show	-10.0584
▁wooden	-10.059
ca	-10.0596
▁Story	-10.0596
▁travel	-10.0599
▁zombies	-10.0603
▁childhood	-10.0607
▁bottom	-10.061
▁element	-10.0616
om	-10.0618
▁teacher	-10.062
▁bright	-10.0624
▁thoroughly	-10.0624
▁actresses	-10.0625
▁moved	-10.0626
▁:	-10.0627
she	-10.0634
▁planet	-10.0635
▁putting	-10.0636
▁theatre	-10.0642
8	-10.065
▁deserve	-10.0653
ru	-10.0656
▁shouldn	-10.0657
▁Du	-10.0687
▁Y	-10.0696
▁soft	-10.0698
▁worthy	-10.0699
▁lose	-10.0701
▁Park	-10.0707
▁latter	-10.071
▁Miss	-10.0711
▁aside	-10.0712
▁Both	-10.072
6	-10.0723
▁Mar	-10.0728
▁Ra	-10.0729
▁Ford	-10.0739
▁apartment	-10.0746
qu	-10.0757
▁seemingly	-10.0764
▁wall	-10.0783
▁justice	-10.0796
▁personality	-10.08
top	-10.0809
▁proves	-10.0813
mp	-10.0816
▁helped	-10.0824
▁pictures	-10.0834
▁damn	-10.0837
▁Ba	-10.0843
▁noir	-10.0852
▁redeeming	-10.0856
ran	-10.0863
▁followed	-10.0872
▁May	-10.0874
▁alien	-10.0891
▁friendship	-10.0905
io	-10.0905
▁mom	-10.091
▁Everything	-10.0913
▁six	-10.0917
▁intriguing	-10.092
ping	-10.0921
▁blame	-10.0922
▁onto	-10.0937
▁provides	-10.0938
▁Ms	-10.0938
▁afraid	-10.0939
▁Lo	-10.0945
▁area	-10.0978
▁soap	-10.098
ED	-10.0995
▁provide	-10.1009
▁blind	-10.1009
▁commentary	-10.1011
▁nasty	-10.1027
▁Christian	-10.1031
▁agent	-10.1031
▁cops	-10.1034
▁merely	-10.1038
▁search	-10.1039
ap	-10.104
▁teenage	-10.1044
▁comedic	-10.1045
▁continue	-10.1049
Not	-10.105
▁70'	-10.1055
▁Its	-10.106
▁rape	-10.1067
▁watchable	-10.108
▁angry	-10.1081
▁helps	-10.1084
▁turning	-10.1085
▁mark	-10.1085
▁board	-10.1085
▁seat	-10.1092
pa	-10.1098
▁energy	-10.1099
▁explanation	-10.1099
▁memory	-10.1099
▁hurt	-10.1104
▁independent	-10.1117
▁Other	-10.1119
▁Jackson	-10.112
No	-10.1121
▁en	-10.1129
▁design	-10.1131
▁creature	-10.1143
▁realized	-10.116
▁clothes	-10.1172
▁filming	-10.1175
▁faces	-10.1183
▁passion	-10.1192
▁length	-10.1193
▁struggle	-10.1197
▁thin	-10.1198
▁ghost	-10.1205
▁cross	-10.1214
▁suspect	-10.1215
▁France	-10.1217
▁sadly	-10.1219
▁asked	-10.1219
▁law	-10.1235
▁Dark	-10.1241
▁led	-10.1247
▁Ryan	-10.125
▁clean	-10.1275
▁Once	-10.1281
▁wild	-10.1286
mm	-10.1286
▁supposedly	-10.1289
▁Jr	-10.1291
▁Little	-10.1292
▁IS	-10.1296
red	-10.1309
▁Please	-10.1317
▁CGI	-10.1321
▁tears	-10.1322
▁martial	-10.1336
che	-10.1337
▁plane	-10.1342
▁personally	-10.1349
▁tragedy	-10.1355
▁Tim	-10.1356
▁visit	-10.1385
▁ugly	-10.1392
▁count	-10.1392
▁accurate	-10.1397
▁treat	-10.1399
bu	-10.1403
▁wanting	-10.1408
bad	-10.1408
▁dying	-10.1411
▁Henry	-10.1417
▁began	-10.1419
▁held	-10.1428
▁Jason	-10.1438
▁sucks	-10.1439
▁relate	-10.1451
▁physical	-10.1453
▁surely	-10.1454
▁inspired	-10.1459
ial	-10.1463
▁VHS	-10.1467
▁Allen	-10.1479
ise	-10.1484
▁brutal	-10.1489
Now	-10.1493
▁thanks	-10.1498
▁ill	-10.1499
▁central	-10.1504
American	-10.1504
▁18	-10.1505
▁anywhere	-10.1509
den	-10.1514
played	-10.1516
▁smile	-10.1516
▁wearing	-10.1518
▁favor	-10.1521
▁carry	-10.1524
oo	-10.1527
▁instance	-10.1541
▁Moore	-10.1542
On	-10.1547
▁surprising	-10.1547
.....	-10.1553
IN	-10.1555
don	-10.1576
▁High	-10.1577
▁Their	-10.1582
▁allow	-10.1588
especially	-10.1598
▁conflict	-10.1599
▁religious	-10.1601
ities	-10.1604
▁artist	-10.1613
▁desert	-10.1619
▁Kevin	-10.1625
▁horse	-10.1636
▁noticed	-10.1641
▁Horror	-10.1643
▁Bob	-10.1644
▁w	-10.1646
▁record	-10.1655
▁necessary	-10.1657
EN	-10.1658
▁hotel	-10.1659
▁dangerous	-10.166
OR	-10.1668
▁unknown	-10.1676
▁Jerry	-10.1679
▁discover	-10.1681
▁Batman	-10.1684
▁gags	-10.1696
▁jump	-10.1697
▁utter	-10.1697
▁boat	-10.1704
Well	-10.1706
▁1970	-10.1713
▁19	-10.1716
▁Po	-10.1724
ver	-10.1731
▁Stephen	-10.1739
ble	-10.1742
▁wonderfully	-10.1745
▁filmmaker	-10.1748
▁intelligence	-10.1751
▁pacing	-10.1751
▁lies	-10.1754
▁artistic	-10.1758
ever	-10.176
▁murders	-10.1764
▁window	-10.1771
▁13	-10.1784
??	-10.1789
▁memories	-10.1789
▁opposite	-10.179
▁born	-10.179
▁fill	-10.1793
gu	-10.1804
▁floor	-10.1809
▁criminal	-10.1811
▁Thomas	-10.1816
▁stock	-10.1817
work	-10.1829
▁mis	-10.1844
nt	-10.1845
▁issue	-10.1861
▁deeply	-10.1895
▁Life	-10.1899
▁White	-10.1902
▁destroy	-10.1907
▁Shakespeare	-10.1907
▁Pa	-10.1907
ex	-10.191
▁prove	-10.1911
▁round	-10.1923
▁anybody	-10.1928
▁understanding	-10.1944
▁rubbish	-10.1945
▁thus	-10.1945
▁author	-10.1947
let	-10.1948
▁kick	-10.1956
▁mission	-10.1961
▁behavior	-10.1965
▁shop	-10.1966
▁Ar	-10.1966
▁scared	-10.1967
director	-10.1967
▁Ga	-10.1968
und	-10.1975
▁sign	-10.1976
▁tape	-10.198
▁engaging	-10.1985
▁regret	-10.1985
▁priest	-10.1985
▁Williams	-10.1986
▁knowledge	-10.1986
▁thinks	-10.1991
▁Bond	-10.1997
▁player	-10.2002
gi	-10.2009
▁introduced	-10.201
AN	-10.2016
▁willing	-10.2016
iness	-10.2017
▁Americans	-10.202
▁bland	-10.2026
there	-10.203
▁unusual	-10.2051
ass	-10.2053
▁summer	-10.2069
▁manage	-10.2072
ang	-10.2079
▁paper	-10.2093
▁inter	-10.2099
▁numbers	-10.21
ship	-10.2103
▁rarely	-10.2103
▁recall	-10.2107
▁food	-10.2107
▁comparison	-10.211
▁apparent	-10.2111
▁Was	-10.2122
???	-10.2122
▁remarkable	-10.2124
▁Chinese	-10.2126
▁?	-10.2127
▁European	-10.2129
▁Brown	-10.2146
lan	-10.2147
▁locations	-10.2158
▁Mike	-10.2161
▁twenty	-10.2164
▁limited	-10.2172
▁commercial	-10.2173
gen	-10.2174
▁vision	-10.2174
▁grow	-10.2183
▁owner	-10.2185
▁site	-10.2189
▁finished	-10.2189
▁debut	-10.2189
low	-10.2194
▁soldier	-10.2195
▁perspective	-10.2204
▁brothers	-10.2204
▁humorous	-10.2204
▁learned	-10.2207
▁leader	-10.2213
▁dealing	-10.2223
However	-10.2228
▁Ta	-10.223
▁o	-10.2241
▁captured	-10.226
▁Davis	-10.2265
▁(19	-10.2265
▁Jo	-10.2273
▁fault	-10.2274
mon	-10.2277
▁hated	-10.2284
▁speaking	-10.2295
▁Having	-10.2298
ot	-10.2313
▁Taylor	-10.2328
▁cable	-10.2329
▁assume	-10.233
▁exist	-10.233
▁crowd	-10.2331
▁loss	-10.2335
ka	-10.2339
▁unnecessary	-10.2346
▁Anne	-10.2359
▁d	-10.236
▁includes	-10.2368
▁months	-10.2372
▁holds	-10.2372
▁trust	-10.2379
ueen	-10.2379
!!!!	-10.2384
▁mental	-10.2394
king	-10.2397
Oh	-10.2403
▁roll	-10.2403
▁army	-10.2415
ned	-10.2416
▁steal	-10.242
▁range	-10.2422
▁seconds	-10.2425
▁suit	-10.243
▁pair	-10.2431
▁nicely	-10.2435
▁technical	-10.2435
mar	-10.2436
▁responsible	-10.2448
back	-10.2451
screen	-10.2453
rate	-10.2454
▁failure	-10.2469
▁news	-10.2473
▁wit	-10.2475
▁Eddie	-10.2476
▁Ca	-10.2489
▁creating	-10.249
▁crappy	-10.2491
▁gold	-10.2494
▁partner	-10.2495
▁cost	-10.2498
▁references	-10.2502
ach	-10.2511
▁Fox	-10.2516
ze	-10.2517
▁Since	-10.2523
dge	-10.2529
▁spoof	-10.2531
▁product	-10.2534
▁Danny	-10.254
▁regular	-10.2542
Some	-10.2543
▁advice	-10.2552
although	-10.2561
ball	-10.2561
rk	-10.257
▁drunk	-10.2574
▁hadn	-10.258
▁asks	-10.2581
▁current	-10.2586
▁bank	-10.2586
▁hang	-10.2589
▁contrast	-10.2594
▁event	-10.2594
▁gotten	-10.26
uff	-10.262
just	-10.2621
▁players	-10.2631
▁lacking	-10.2641
▁heroine	-10.2648
▁irritating	-10.2657
▁vote	-10.2659
▁survive	-10.2659
▁judge	-10.2661
ward	-10.2666
they	-10.267
▁witty	-10.2679
▁Arthur	-10.2685
▁genuine	-10.2686
▁deserved	-10.269
▁below	-10.2694
▁treated	-10.2697
▁g	-10.2699
▁loves	-10.2703
▁mixed	-10.2703
▁Alan	-10.2714
bi	-10.2714
▁award	-10.2719
light	-10.2719
▁Everyone	-10.2731
▁wide	-10.2733
▁loving	-10.2738
lic	-10.2739
▁games	-10.274
▁African	-10.2745
▁capture	-10.2746
▁constant	-10.275
▁fat	-10.2765
▁bigger	-10.2768
▁explained	-10.2771
▁Australian	-10.2771
▁youth	-10.2778
▁warm	-10.2783
▁Vi	-10.2784
▁Eric	-10.2785
▁machine	-10.2787
▁field	-10.2788
▁nonsense	-10.279
▁fail	-10.279
▁murdered	-10.28
▁Howard	-10.2809
▁pilot	-10.2811
▁returns	-10.2822
▁radio	-10.2827
▁foreign	-10.283
▁strength	-10.283
LY	-10.2838
▁Che	-10.284
▁fate	-10.2845
▁Cha	-10.2848
▁terribly	-10.2848
▁finest	-10.2856
▁Johnny	-10.2858
▁arts	-10.2868
▁church	-10.287
▁pretentious	-10.2872
▁humanity	-10.2879
▁Sci	-10.2882
▁bloody	-10.2885
ft	-10.2887
▁program	-10.2891
▁produce	-10.2892
▁individual	-10.2894
▁parody	-10.2895
▁model	-10.2914
▁sing	-10.2916
rd	-10.2922
▁El	-10.2925
▁formula	-10.2929
▁****	-10.2933
▁unrealistic	-10.2942
▁generation	-10.2942
▁blue	-10.2942
how	-10.2955
▁cash	-10.2958
▁Wayne	-10.2961
▁research	-10.2963
▁Did	-10.2966
pro	-10.2967
▁community	-10.2978
▁unfunny	-10.2979
▁hidden	-10.2981
▁protagonist	-10.2983
▁Men	-10.2983
end	-10.2986
ja	-10.3001
par	-10.3007
▁desperate	-10.3009
▁efforts	-10.3012
▁sucked	-10.3013
▁print	-10.3015
▁Matt	-10.302
Re	-10.303
▁quiet	-10.3031
▁Nick	-10.3037
▁spoil	-10.3038
▁satire	-10.3044
▁More	-10.3045
▁consist	-10.3048
▁reaction	-10.3052
▁kinda	-10.3057
art	-10.3062
▁lovers	-10.3064
looking	-10.3068
▁skills	-10.3083
RE	-10.3084
▁Sean	-10.3085
▁numerous	-10.3088
▁portray	-10.3096
▁Those	-10.3098
▁Brian	-10.3099
▁bits	-10.3104
▁Asian	-10.3105
▁flying	-10.3106
though	-10.3116
▁driving	-10.3132
▁England	-10.3132
▁host	-10.3134
▁keeping	-10.3139
▁dreadful	-10.3141
▁eat	-10.3148
▁Lynch	-10.3154
ette	-10.3162
▁Western	-10.3168
▁Cor	-10.3171
▁remembered	-10.3174
ker	-10.3176
▁drag	-10.3179
▁develop	-10.319
▁mini	-10.3197
▁included	-10.32
▁seven	-10.32
▁Okay	-10.3215
▁ran	-10.3223
▁finale	-10.323
▁Jeff	-10.3232
▁lets	-10.3237
jo	-10.3238
▁reviewers	-10.324
▁gory	-10.3241
▁therefore	-10.3243
▁source	-10.3243
▁growing	-10.3245
▁Guy	-10.3256
▁test	-10.3263
▁shallow	-10.3265
An	-10.3269
▁vi	-10.3269
▁Ann	-10.3273
▁winning	-10.3279
▁study	-10.329
▁pulled	-10.329
▁IN	-10.329
▁starting	-10.3293
▁Mel	-10.3311
ice	-10.3315
▁lesson	-10.3318
tion	-10.332
▁Boy	-10.3321
▁animal	-10.3322
▁sharp	-10.3333
▁stereotypes	-10.3333
mb	-10.3333
▁Joan	-10.3343
▁grade	-10.3348
▁grace	-10.3356
war	-10.3358
▁Mad	-10.3359
▁ordinary	-10.336
▁rescue	-10.3362
ue	-10.3366
▁sees	-10.3368
▁concerned	-10.3368
▁combination	-10.3378
▁Adam	-10.3388
▁media	-10.3394
▁NO	-10.3398
▁context	-10.34
▁Street	-10.3404
▁awkward	-10.3408
▁magnificent	-10.341
▁Alex	-10.341
▁calls	-10.3417
ious	-10.342
▁sell	-10.3426
▁realism	-10.3427
▁dated	-10.3428
▁delightful	-10.3434
▁II	-10.3444
▁officer	-10.3445
▁deals	-10.3445
▁ring	-10.3453
▁11	-10.3453
▁tight	-10.3456
head	-10.3458
uck	-10.3461
▁actions	-10.3473
▁discovered	-10.3473
▁Texas	-10.3495
▁table	-10.3495
▁60	-10.3503
▁cameo	-10.3509
▁Ne	-10.3512
▁aware	-10.3514
▁empty	-10.3515
▁grew	-10.3515
▁village	-10.3516
▁singer	-10.3517
cha	-10.3519
▁somebody	-10.3521
▁green	-10.3521
▁received	-10.3522
▁psychological	-10.3525
▁sheer	-10.3527
▁fights	-10.3531
▁speed	-10.3538
▁teenagers	-10.3544
▁Lewis	-10.3546
▁contain	-10.3562
▁corny	-10.3564
▁Stone	-10.3568
▁frame	-10.3572
▁Robin	-10.3573
▁spectacular	-10.3573
▁connection	-10.3579
▁heads	-10.3582
▁festival	-10.3584
Do	-10.3585
▁teenager	-10.3586
▁correct	-10.3589
▁vs	-10.3593
▁hits	-10.3594
While	-10.3596
▁gangster	-10.3603
▁contrived	-10.3608
▁unexpected	-10.3617
▁display	-10.362
▁Chan	-10.3623
▁Death	-10.3624
row	-10.3628
Fi	-10.3634
▁ha	-10.3635
▁Island	-10.3636
▁talents	-10.3638
rr	-10.3642
▁fame	-10.3656
og	-10.3662
▁Sp	-10.3662
▁Gary	-10.3672
▁choose	-10.3673
▁truck	-10.3679
▁rental	-10.3688
▁tedious	-10.37
▁Dick	-10.3709
ff	-10.3714
ell	-10.3716
▁attitude	-10.3721
▁prefer	-10.3723
▁woods	-10.3723
▁sake	-10.3725
);	-10.3727
ator	-10.3728
▁Ko	-10.3729
▁villains	-10.3735
▁insane	-10.3736
▁genuinely	-10.3738
▁underrated	-10.3749
▁monsters	-10.3759
▁amateur	-10.377
▁Douglas	-10.377
▁gonna	-10.377
▁amateurish	-10.3771
TV	-10.3773
▁target	-10.3777
▁meeting	-10.3779
▁results	-10.378
▁grown	-10.3784
▁grand	-10.3784
▁bomb	-10.3784
▁Never	-10.3785
▁saved	-10.3787
istic	-10.3792
They	-10.3792
▁involves	-10.3794
▁morning	-10.3794
▁Max	-10.3801
▁reach	-10.3802
side	-10.381
▁evidence	-10.3818
▁Julie	-10.382
▁wise	-10.3821
▁dry	-10.3826
made	-10.3829
ay	-10.3831
ek	-10.3838
▁draw	-10.384
▁Morgan	-10.3846
▁guns	-10.3846
▁revealed	-10.3855
▁join	-10.3857
ren	-10.3859
▁sympathetic	-10.3865
vo	-10.3866
▁Spanish	-10.3868
▁highlight	-10.387
▁graphic	-10.3871
▁laughter	-10.3873
▁edited	-10.388
▁Any	-10.3881
▁path	-10.3885
▁BBC	-10.3889
▁luck	-10.3889
▁/	-10.3891
cing	-10.3893
fer	-10.39
After	-10.3903
▁higher	-10.3913
▁THIS	-10.3917
▁disgusting	-10.3919
str	-10.3921
han	-10.3926
▁Fred	-10.3927
▁price	-10.3935
▁decade	-10.3939
▁Hitler	-10.394
▁Edward	-10.3942
With	-10.3952
real	-10.3956
whilst	-10.3961
▁naive	-10.3961
pi	-10.3962
▁lesbian	-10.3963
▁executed	-10.3965
▁yeah	-10.3973
▁existence	-10.3985
▁featuring	-10.3988
▁gross	-10.3988
Also	-10.4001
▁hopes	-10.4008
▁legend	-10.4008
▁Anthony	-10.4014
▁Gene	-10.4024
▁par	-10.4025
▁families	-10.4033
▁relief	-10.4033
sen	-10.4045
▁surreal	-10.4049
ative	-10.4053
▁described	-10.4056
ug	-10.406
▁overly	-10.406
▁toward	-10.4061
▁provided	-10.4064
▁feet	-10.4067
till	-10.4079
▁Far	-10.4093
▁desire	-10.4095
lly	-10.4097
▁warning	-10.4101
▁decision	-10.4112
ES	-10.4117
▁send	-10.4118
ane	-10.4118
▁Which	-10.4122
▁Europe	-10.4128
ical	-10.4131
▁Keaton	-10.4133
▁TO	-10.4145
ning	-10.4147
▁heroes	-10.4151
down	-10.4152
▁DO	-10.4156
▁skin	-10.4165
▁curious	-10.4166
▁dressed	-10.4167
▁continues	-10.4176
▁delivered	-10.418
can	-10.4183
▁originally	-10.4185
▁breaks	-10.4186
▁visuals	-10.4198
use	-10.4203
▁veteran	-10.4204
gg	-10.4205
▁treatment	-10.4205
▁Su	-10.4219
▁degree	-10.4228
▁lousy	-10.4228
ging	-10.423
oh	-10.4245
How	-10.4248
▁Simon	-10.4248
pp	-10.4249
▁Ja	-10.4251
▁traditional	-10.4251
▁Academy	-10.4253
▁handsome	-10.4255
▁occasionally	-10.4264
▁unable	-10.4268
▁brilliantly	-10.4268
▁interview	-10.4272
▁risk	-10.4279
At	-10.4279
John	-10.4295
▁depressing	-10.4303
▁Seagal	-10.4307
▁Steven	-10.4327
▁capable	-10.4329
▁flashbacks	-10.4341
▁logic	-10.4349
▁gratuitous	-10.4352
▁Trek	-10.4353
▁refreshing	-10.4354
▁sword	-10.4355
▁influence	-10.4361
▁recognize	-10.4364
ld	-10.4366
▁reviewer	-10.4369
?!	-10.4378
▁discovers	-10.4381
▁built	-10.4381
▁Lord	-10.4386
▁Before	-10.4392
▁entertained	-10.4393
ris	-10.4397
▁forces	-10.4399
▁insult	-10.4401
▁depiction	-10.4403
▁excited	-10.4404
▁semi	-10.4407
▁cuts	-10.4408
▁walked	-10.4412
▁Wow	-10.4417
▁levels	-10.442
gy	-10.4421
▁promise	-10.4424
▁cars	-10.4426
ens	-10.4426
▁Japan	-10.4428
▁football	-10.4428
wi	-10.4438
▁Jennifer	-10.4438
▁Time	-10.4447
▁viewed	-10.4448
▁lower	-10.4448
!).	-10.4451
▁ruin	-10.4452
▁horribly	-10.4453
▁stopped	-10.4454
▁Jimmy	-10.4459
▁remain	-10.4479
Of	-10.4484
▁sc	-10.4493
▁screaming	-10.4496
▁chick	-10.4497
▁regard	-10.4501
ped	-10.4503
▁saving	-10.4504
ep	-10.4511
▁di	-10.4515
0	-10.4517
▁embarrassing	-10.4519
▁imp	-10.4523
ide	-10.4526
▁substance	-10.4529
ina	-10.453
▁wind	-10.4534
▁eating	-10.4545
▁majority	-10.456
ya	-10.457
▁theaters	-10.4579
▁section	-10.458
▁promising	-10.4585
ana	-10.4586
▁costs	-10.4587
▁proper	-10.4597
▁portrays	-10.4597
▁foot	-10.46
▁proved	-10.4601
▁Festival	-10.4605
▁Gordon	-10.4606
▁knock	-10.4613
▁ultimate	-10.4622
▁expression	-10.4623
First	-10.4625
val	-10.4627
▁slapstick	-10.4631
▁Louis	-10.4632
▁Plus	-10.4637
▁junk	-10.4637
▁Barbara	-10.4641
▁Harris	-10.4654
▁pile	-10.4672
gan	-10.4677
▁Last	-10.4677
▁zero	-10.4683
▁Gi	-10.4687
▁Larry	-10.4687
ual	-10.4691
hy	-10.4691
▁harsh	-10.4709
▁se	-10.4709
au	-10.4713
▁SO	-10.4713
▁Jesus	-10.4714
▁essentially	-10.4716
▁market	-10.4722
▁Andy	-10.4728
▁subtitles	-10.4728
▁appealing	-10.4733
▁grave	-10.4734
▁met	-10.4735
▁circumstances	-10.4737
▁broken	-10.4743
▁steals	-10.4743
▁IT	-10.4743
▁praise	-10.4748
▁qualities	-10.476
▁normally	-10.476
▁Mrs	-10.4761
ung	-10.4763
**	-10.4767
za	-10.4768
fe	-10.4769
▁Hell	-10.4774
▁fly	-10.4774
Even	-10.4782
▁ball	-10.4783
▁Ri	-10.4784
▁Take	-10.4788
od	-10.4794
▁strongly	-10.4795
▁abuse	-10.4797
▁humans	-10.4804
▁10/10	-10.4814
▁theatrical	-10.4814
▁Canadian	-10.4816
▁dubbed	-10.4819
car	-10.482
She	-10.4827
▁asleep	-10.4829
▁skip	-10.4829
▁endless	-10.483
▁Really	-10.4833
▁Cat	-10.4833
▁routine	-10.4835
▁vehicle	-10.4835
▁cares	-10.4835
▁entertain	-10.4837
▁rival	-10.4837
▁Germany	-10.4838
▁ladies	-10.4839
▁eight	-10.4845
▁Hall	-10.4849
▁pleasant	-10.4852
▁lucky	-10.4858
10	-10.4859
▁asking	-10.4862
▁Chaplin	-10.4867
▁shocked	-10.4869
AL	-10.4872
▁clue	-10.4872
▁loses	-10.4873
az	-10.4874
▁scare	-10.4875
▁reporter	-10.4875
▁creatures	-10.4885
▁Albert	-10.4897
▁danger	-10.4913
▁costume	-10.4915
▁twisted	-10.4938
tra	-10.4938
▁portraying	-10.4944
▁bodies	-10.4944
▁faith	-10.4948
▁Space	-10.4949
▁exploitation	-10.4949
▁murderer	-10.4958
▁ruined	-10.4962
Then	-10.4964
field	-10.4965
▁painfully	-10.4969
▁Jackie	-10.498
▁hide	-10.4982
▁Girl	-10.499
izing	-10.5004
Ha	-10.5007
▁creates	-10.5015
▁account	-10.5023
▁religion	-10.5024
▁Lady	-10.5032
▁caused	-10.5033
nu	-10.5034
▁types	-10.5034
▁Walter	-10.5045
▁speech	-10.5046
▁hearing	-10.5054
wa	-10.5063
▁cell	-10.5067
▁blend	-10.5077
▁Kong	-10.5079
▁Being	-10.5086
▁passed	-10.5086
ero	-10.5093
▁blonde	-10.5098
▁winner	-10.5106
▁fish	-10.5107
▁bringing	-10.5108
▁Up	-10.5114
▁bore	-10.5115
▁rise	-10.5136
▁scale	-10.5142
▁Alice	-10.5143
▁center	-10.5147
▁driver	-10.5148
Why	-10.5156
▁worthwhile	-10.5159
▁r	-10.516
Be	-10.5162
▁Anyone	-10.5168
▁fool	-10.5168
▁Again	-10.5168
▁flesh	-10.5168
▁satisfying	-10.5169
▁emotionally	-10.5172
ile	-10.5175
▁sequels	-10.518
▁rough	-10.5187
▁blow	-10.5191
▁offensive	-10.5192
ven	-10.5199
pl	-10.5207
▁dollars	-10.5211
rated	-10.5222
▁Green	-10.5225
▁pity	-10.5233
▁Rose	-10.5242
▁UK	-10.5245
▁Irish	-10.5258
▁whenever	-10.5261
▁ancient	-10.5267
▁safe	-10.5268
▁Mi	-10.527
▁depicted	-10.5271
▁position	-10.5273
▁Kim	-10.5276
▁factor	-10.5283
writer	-10.5286
▁suffering	-10.5293
▁Washington	-10.5294
▁flow	-10.5297
▁Kate	-10.5298
▁experienced	-10.53
▁Blood	-10.5301
▁ages	-10.5315
▁cruel	-10.5321
▁Out	-10.5328
▁nominated	-10.5328
▁bus	-10.5335
ving	-10.5342
▁cartoons	-10.5343
ure	-10.5344
▁arm	-10.5345
▁Com	-10.5349
▁department	-10.535
▁weeks	-10.5356
▁term	-10.5361
ists	-10.5367
▁standing	-10.5367
De	-10.5371
▁Car	-10.5373
ji	-10.5373
▁service	-10.5379
▁makeup	-10.5379
▁suspenseful	-10.5385
▁Avoid	-10.5401
ham	-10.5404
▁prior	-10.5405
▁surface	-10.5405
▁excitement	-10.5405
▁criticism	-10.5405
▁Look	-10.5411
▁root	-10.5414
ev	-10.5418
▁unfortunate	-10.542
▁Are	-10.543
▁identity	-10.5432
▁angles	-10.5452
00	-10.5458
▁contemporary	-10.546
▁technology	-10.546
▁teens	-10.5463
▁idiot	-10.5471
▁fare	-10.5475
▁environment	-10.5477
▁appropriate	-10.548
▁figured	-10.5492
▁chosen	-10.5492
▁Wars	-10.5493
▁claim	-10.5498
▁bothered	-10.5508
▁Moon	-10.5515
▁melodrama	-10.5515
▁execution	-10.5516
▁Wilson	-10.5517
▁MST	-10.5517
▁Broadway	-10.5519
▁1980	-10.552
▁king	-10.5523
▁drop	-10.5532
▁charge	-10.5533
▁Pi	-10.5534
ong	-10.5539
▁encounter	-10.5539
ko	-10.554
▁THAT	-10.5544
▁Russell	-10.5545
▁freedom	-10.5545
▁Holmes	-10.5548
▁Joseph	-10.555
***	-10.5553
▁San	-10.5556
▁25	-10.5566
▁stereotypical	-10.5573
▁propaganda	-10.5574
▁fits	-10.5574
▁heck	-10.5578
wood	-10.5579
▁suck	-10.5599
▁opens	-10.5602
▁burn	-10.5602
▁marry	-10.5608
act	-10.561
▁Actually	-10.5612
av	-10.5614
▁renting	-10.5623
▁Mac	-10.5626
▁u	-10.5628
▁false	-10.5629
ino	-10.5634
▁punch	-10.5637
▁Dennis	-10.5638
▁believed	-10.564
cent	-10.564
▁sports	-10.564
▁performed	-10.5644
▁ignore	-10.565
port	-10.5653
too	-10.5654
▁base	-10.5656
▁lawyer	-10.5658
▁losing	-10.5658
▁California	-10.566
uc	-10.566
▁visually	-10.5665
▁Roger	-10.5667
▁Dean	-10.5682
▁convince	-10.5684
Anyway	-10.5686
Just	-10.5687
▁Watching	-10.5688
▁Sch	-10.57
▁sudden	-10.5702
▁structure	-10.5702
▁talks	-10.5709
ip	-10.5713
▁disagree	-10.5715
▁sympathy	-10.5715
▁task	-10.5715
▁Anderson	-10.5716
lock	-10.572
▁latest	-10.5723
▁allows	-10.5723
▁bag	-10.5724
▁Brothers	-10.573
▁Part	-10.5736
▁powers	-10.5737
▁multiple	-10.5742
▁private	-10.5743
Although	-10.5744
▁training	-10.5746
▁frankly	-10.5746
▁wedding	-10.5748
▁wear	-10.5751
▁Get	-10.5754
▁Anna	-10.5755
▁Roy	-10.5757
▁crash	-10.5759
▁streets	-10.5759
▁lo	-10.576
▁evening	-10.5762
▁End	-10.5763
boy	-10.5769
▁1960	-10.5772
▁network	-10.5772
Each	-10.5776
RA	-10.5776
tain	-10.5779
AR	-10.578
ville	-10.5781
▁chose	-10.5797
▁exact	-10.58
▁China	-10.5802
fa	-10.5805
▁Evil	-10.581
▁core	-10.5828
▁Art	-10.5829
▁prevent	-10.583
▁captures	-10.5831
▁featured	-10.5835
▁touches	-10.5838
▁Yeah	-10.5844
▁accents	-10.5857
▁crack	-10.5859
get	-10.586
▁concern	-10.5861
qui	-10.5864
▁guilty	-10.5865
▁park	-10.5866
dle	-10.587
▁USA	-10.587
▁Three	-10.5874
▁segment	-10.5878
▁Daniel	-10.5886
▁Am	-10.5889
▁jail	-10.5889
▁Murphy	-10.589
ised	-10.5892
▁equal	-10.5892
▁according	-10.5893
▁Captain	-10.5894
▁Saturday	-10.5895
▁crying	-10.5898
▁remotely	-10.5899
▁cutting	-10.59
nch	-10.5905
▁Parker	-10.5905
ks	-10.5905
▁fl	-10.5906
fest	-10.5909
ick	-10.5909
▁suffers	-10.5916
▁spoilers	-10.5923
▁inept	-10.593
▁ma	-10.5936
▁belief	-10.594
▁CO	-10.5941
▁rules	-10.5942
▁movement	-10.5942
▁Dur	-10.5942
▁reputation	-10.5946
▁frightening	-10.5948
▁practically	-10.595
▁committed	-10.595
▁obsessed	-10.5954
▁Johnson	-10.5957
▁Much	-10.5964
▁handled	-10.597
▁Come	-10.5971
▁atrocious	-10.5975
▁supernatural	-10.5976
▁Eastwood	-10.5976
▁bat	-10.5977
▁virtually	-10.598
law	-10.5983
▁psycho	-10.5987
▁unlikely	-10.6
zz	-10.6004
▁category	-10.6005
▁massive	-10.6005
▁multi	-10.6007
▁Vietnam	-10.6007
uring	-10.601
▁largely	-10.6012
cu	-10.6016
▁1950	-10.6018
▁speaks	-10.6024
Le	-10.6031
▁description	-10.6034
▁walks	-10.605
▁conversation	-10.6058
▁Over	-10.6058
ov	-10.6061
▁ludicrous	-10.6064
▁unconvincing	-10.6064
▁bear	-10.6068
▁holding	-10.6069
▁Patrick	-10.607
▁previously	-10.6078
▁screening	-10.6081
▁tear	-10.6086
lon	-10.6088
▁MOVIE	-10.6094
▁voices	-10.6094
written	-10.6096
▁14	-10.6096
▁Especially	-10.61
▁gr	-10.6102
▁besides	-10.6105
chi	-10.6108
ions	-10.6108
▁separate	-10.6109
py	-10.6116
▁North	-10.6117
▁paced	-10.612
▁continuity	-10.6123
▁ALL	-10.6126
including	-10.6126
▁protect	-10.6129
▁format	-10.6137
▁reveal	-10.614
watch	-10.6141
ps	-10.6141
▁Thank	-10.6148
▁scenario	-10.6149
▁cheese	-10.6153
▁Channel	-10.6153
▁court	-10.6153
▁forgettable	-10.6154
▁accidentally	-10.6157
▁thank	-10.6161
▁beach	-10.6167
La	-10.6168
▁proud	-10.6171
▁repeat	-10.6179
▁faithful	-10.6179
▁VERY	-10.6183
▁variety	-10.6183
▁Jewish	-10.6183
▁Gu	-10.6185
▁Mexican	-10.6186
ray	-10.6187
▁breath	-10.6189
▁Halloween	-10.6196
▁Sadly	-10.6201
ture	-10.6203
ford	-10.6206
▁insight	-10.6208
▁Brooks	-10.6211
▁amazed	-10.6217
▁pet	-10.6219
▁Helen	-10.6221
▁anger	-10.6221
▁dirty	-10.6222
sion	-10.6225
▁lie	-10.6226
ix	-10.6231
iest	-10.6236
▁plans	-10.6237
ake	-10.6237
▁prime	-10.6237
▁Africa	-10.6238
▁treasure	-10.6243
▁extraordinary	-10.6243
▁Donald	-10.6251
▁required	-10.6251
ub	-10.6253
▁sensitive	-10.6254
▁Finally	-10.6256
▁Bu	-10.6261
▁States	-10.6266
▁United	-10.6274
▁crude	-10.6281
bs	-10.6302
style	-10.6318
▁inner	-10.6322
▁forgot	-10.6327
▁covered	-10.633
▁narration	-10.6334
▁stayed	-10.6337
▁sp	-10.6338
▁haunting	-10.6343
Mi	-10.6344
▁India	-10.6357
ged	-10.6359
▁stomach	-10.6365
▁patient	-10.6365
▁interpretation	-10.6366
▁Stan	-10.6366
▁16	-10.6368
▁everywhere	-10.6369
▁tradition	-10.6371
▁Sometimes	-10.6371
▁scream	-10.6376
▁Ted	-10.6386
▁suffer	-10.6388
▁dude	-10.6394
▁comical	-10.6395
▁sounded	-10.6399
▁repeated	-10.6399
▁Elizabeth	-10.6403
ric	-10.6407
▁learns	-10.6408
des	-10.6418
▁Lu	-10.6423
▁funnier	-10.6426
▁Pre	-10.6428
▁spite	-10.6429
▁buying	-10.643
▁statement	-10.643
tan	-10.6435
▁focused	-10.6438
▁prepared	-10.6439
▁shape	-10.644
▁vampires	-10.6441
▁initial	-10.6444
▁fu	-10.645
ery	-10.6456
▁Fulci	-10.6457
▁contact	-10.6457
key	-10.6457
▁experiment	-10.6458
▁politics	-10.6469
▁delight	-10.6472
his	-10.6477
▁expert	-10.648
▁po	-10.6482
▁Sha	-10.6484
▁hanging	-10.6489
play	-10.6492
action	-10.6494
▁spin	-10.6507
▁Fe	-10.6509
▁sum	-10.6513
▁destroyed	-10.6514
ible	-10.6516
▁enemy	-10.6519
▁turkey	-10.6519
▁universe	-10.6519
ified	-10.652
▁uncle	-10.6525
nny	-10.6527
hearted	-10.6527
▁erotic	-10.6529
▁Law	-10.6542
ear	-10.6543
▁YOU	-10.6545
▁President	-10.655
▁jerk	-10.6553
▁Warner	-10.6553
▁blown	-10.6555
Ho	-10.6558
▁experiences	-10.6558
▁Add	-10.6565
AT	-10.6573
▁directly	-10.6576
▁gruesome	-10.6581
▁obnoxious	-10.6581
▁summary	-10.6581
▁gritty	-10.6581
▁Mor	-10.6586
▁occasional	-10.6601
▁mo	-10.6603
Ro	-10.6606
run	-10.6609
▁teeth	-10.6613
▁uninteresting	-10.6613
hu	-10.6618
▁sun	-10.662
LE	-10.6626
▁surprises	-10.6628
▁convinced	-10.663
▁text	-10.6633
▁skill	-10.6635
▁Jon	-10.6637
ny	-10.664
▁wake	-10.6647
shi	-10.6651
▁Tarzan	-10.6651
▁abandoned	-10.6651
▁Apparently	-10.6652
▁Your	-10.6667
berg	-10.6672
▁weekend	-10.6676
▁mainstream	-10.668
▁terror	-10.6691
▁van	-10.6693
▁comp	-10.6698
▁succeed	-10.6698
▁assistant	-10.6707
▁Rob	-10.6707
▁tiny	-10.6711
▁focuses	-10.6716
▁pretend	-10.6716
▁witch	-10.6726
▁warn	-10.6728
▁originality	-10.6732
▁intellectual	-10.6734
▁concert	-10.6738
▁cousin	-10.6738
▁understood	-10.6738
▁insist	-10.6739
called	-10.674
dimensional	-10.6744
▁mildly	-10.6746
▁listening	-10.6749
▁Julia	-10.6753
town	-10.6758
where	-10.677
▁jungle	-10.677
▁creation	-10.6774
horror	-10.6776
▁device	-10.6779
Ma	-10.6781
▁Per	-10.6784
hard	-10.6791
du	-10.6791
):	-10.68
▁witness	-10.6801
▁anime	-10.6802
▁downright	-10.6806
St	-10.6812
▁Friday	-10.6814
▁classics	-10.6823
fl	-10.6828
▁trapped	-10.6834
▁stolen	-10.6836
▁mistakes	-10.6837
▁forth	-10.6849
▁calling	-10.6855
▁hat	-10.6859
ash	-10.6861
▁heavily	-10.6866
tter	-10.6866
▁imagery	-10.6868
▁quirky	-10.6874
▁:)	-10.688
▁interviews	-10.6883
▁dress	-10.6888
▁topic	-10.6898
▁Sunday	-10.6898
▁Lane	-10.6903
▁complicated	-10.6903
known	-10.6904
read	-10.6904
▁favorites	-10.6908
▁remote	-10.6917
yn	-10.6921
▁Dar	-10.693
▁status	-10.693
vis	-10.6932
▁pulls	-10.6932
▁peace	-10.6934
▁Second	-10.6935
lar	-10.6937
▁weapons	-10.6939
▁reference	-10.6945
right	-10.6948
▁hip	-10.6953
▁deeper	-10.696
▁Have	-10.6961
ade	-10.6961
▁FBI	-10.6962
▁facial	-10.6962
▁appreciated	-10.6962
▁hire	-10.6963
▁Pat	-10.6975
ization	-10.6978
▁hired	-10.6979
▁extras	-10.6981
▁critical	-10.6985
fu	-10.6985
▁drink	-10.6987
Yes	-10.6988
▁farm	-10.7
▁combined	-10.7003
▁Otherwise	-10.7003
▁Susan	-10.7004
▁paint	-10.7008
▁17	-10.7013
▁Roberts	-10.7014
fully	-10.7015
▁claims	-10.7015
▁nurse	-10.7018
▁None	-10.7019
▁balance	-10.702
▁Clark	-10.7024
▁serve	-10.7026
▁demon	-10.7027
▁timing	-10.7027
▁river	-10.7027
▁chair	-10.7028
▁Hi	-10.7034
▁changing	-10.7037
▁flashback	-10.7043
▁sitcom	-10.7046
▁paying	-10.7046
▁warned	-10.7048
▁handle	-10.705
ties	-10.7051
Let	-10.7053
▁campy	-10.7054
▁Hard	-10.7063
except	-10.7069
▁birth	-10.707
▁native	-10.7076
ple	-10.7077
▁serves	-10.7078
▁gain	-10.7079
▁LA	-10.7084
▁Long	-10.7091
▁struggling	-10.7093
..."	-10.7093
▁nude	-10.7093
▁via	-10.7096
▁goofy	-10.7098
▁haunted	-10.71
ST	-10.7102
relatively	-10.7105
▁Hoffman	-10.7126
ular	-10.7126
▁perform	-10.7127
▁LOVE	-10.713
very	-10.7132
From	-10.7135
▁Kill	-10.7136
ky	-10.7141
▁choices	-10.7144
▁amazingly	-10.7153
ez	-10.7157
rick	-10.7157
▁seek	-10.7157
ily	-10.7159
▁closing	-10.7159
▁Blue	-10.7162
▁guide	-10.7165
▁brave	-10.7166
▁Doctor	-10.7166
▁seasons	-10.7171
▁driven	-10.7188
▁decades	-10.7189
▁Santa	-10.7192
cur	-10.7195
▁Bar	-10.7196
▁WWII	-10.7197
▁upset	-10.7205
▁raised	-10.7206
▁closer	-10.722
▁le	-10.722
▁inspiration	-10.7222
▁matters	-10.7227
▁Kane	-10.7231
▁offered	-10.7234
▁nose	-10.7239
▁wreck	-10.724
eg	-10.7256
▁Fu	-10.7258
▁horrific	-10.7258
▁carried	-10.7258
▁mindless	-10.7259
more	-10.7259
pre	-10.7259
ups	-10.7261
▁Killer	-10.7263
vin	-10.7265
▁cultural	-10.7266
ai	-10.7268
▁Jay	-10.7279
▁placed	-10.728
▁stunt	-10.728
▁mob	-10.7293
ations	-10.7308
win	-10.7311
yes	-10.7315
▁passing	-10.7317
▁page	-10.7317
oc	-10.7318
▁dozen	-10.7319
▁mountain	-10.7326
▁broad	-10.7326
▁Cooper	-10.7327
▁chief	-10.7331
▁Cage	-10.7334
aw	-10.7339
▁bitter	-10.7344
▁Old	-10.7355
▁magical	-10.7355
▁trilogy	-10.7359
▁afternoon	-10.7359
iv	-10.7361
▁mature	-10.7361
▁Mickey	-10.7365
▁tree	-10.7383
▁dare	-10.7389
▁pregnant	-10.7393
▁racist	-10.7393
▁legendary	-10.7394
▁Army	-10.7397
▁reminiscen	-10.7406
ON	-10.7407
story	-10.7409
Man	-10.741
▁Hunter	-10.7411
▁presents	-10.7413
▁rank	-10.7422
▁designed	-10.7424
▁h	-10.7429
▁gas	-10.7429
plot	-10.743
▁Ken	-10.743
Mr	-10.743
▁Miller	-10.7431
▁security	-10.7432
▁scares	-10.7433
▁halfway	-10.7433
▁achieve	-10.7434
▁Dracula	-10.7435
▁shut	-10.7435
from	-10.7438
▁touched	-10.7439
▁Back	-10.7448
▁succeeds	-10.7452
▁indie	-10.7452
▁naturally	-10.7457
tz	-10.7461
▁introduction	-10.7461
▁tongue	-10.7461
▁hey	-10.7462
▁authentic	-10.7463
cat	-10.7464
▁effectively	-10.7464
▁starred	-10.7464
▁welcome	-10.7479
girl	-10.7481
▁sides	-10.7484
cho	-10.749
▁blah	-10.7495
▁believes	-10.7496
▁Hong	-10.7497
▁connect	-10.7497
▁Sarah	-10.7504
dom	-10.7506
▁Lou	-10.7509
▁delivery	-10.7516
▁dislike	-10.7519
ita	-10.7523
bit	-10.7523
▁disbelief	-10.7529
▁miscast	-10.753
▁Los	-10.7534
Go	-10.7534
▁Ron	-10.7535
▁expressions	-10.754
▁throwing	-10.7543
cut	-10.7551
▁rolling	-10.7566
class	-10.7566
ain	-10.7569
▁disc	-10.7572
gra	-10.7574
▁nation	-10.7575
▁Wi	-10.7577
▁About	-10.7577
ically	-10.7578
▁stupidity	-10.7579
▁Brad	-10.7583
▁Mon	-10.7584
▁mask	-10.7584
▁na	-10.7588
▁stylish	-10.7598
▁smoke	-10.7598
▁baseball	-10.7598
▁measure	-10.7599
▁Nazi	-10.7601
▁chain	-10.7601
▁Luke	-10.7606
▁arrives	-10.761
▁East	-10.7613
af	-10.7613
▁comedian	-10.7627
▁national	-10.7627
▁extent	-10.7633
▁plastic	-10.7633
▁ashamed	-10.7633
▁li	-10.7634
ack	-10.7643
▁da	-10.7643
▁realizes	-10.7645
Another	-10.7645
▁solve	-10.7652
▁desperately	-10.7653
ising	-10.7655
▁drinking	-10.7656
ama	-10.7659
▁shark	-10.7667
▁flight	-10.7668
something	-10.768
illa	-10.7681
are	-10.7686
ction	-10.7692
ign	-10.7694
ect	-10.7702
▁poignant	-10.7702
▁basis	-10.7702
▁gag	-10.7705
▁Karen	-10.7705
▁MGM	-10.7706
▁storytelling	-10.7707
▁Hu	-10.7708
▁cap	-10.7715
ugh	-10.7716
▁colors	-10.7718
▁pan	-10.772
▁Does	-10.7724
▁tune	-10.7727
▁cave	-10.7729
▁spoiler	-10.7731
▁hack	-10.7732
cy	-10.7734
▁Bra	-10.7735
▁greater	-10.7737
▁international	-10.7737
▁overcome	-10.7743
▁everyday	-10.7748
▁Barry	-10.7748
▁2.	-10.7759
▁mentally	-10.7759
▁enter	-10.7768
▁condition	-10.7769
existent	-10.7772
▁nuclear	-10.7772
▁Pro	-10.7773
ough	-10.7781
▁mass	-10.7782
▁cr	-10.7783
▁Gun	-10.7783
▁Baby	-10.7785
wise	-10.779
▁hint	-10.7791
▁object	-10.7799
▁/>*	-10.7802
▁breaking	-10.7805
▁advantage	-10.7807
▁fabulous	-10.7807
▁sheriff	-10.7807
▁versions	-10.7809
▁pa	-10.7814
▁buddy	-10.7814
▁related	-10.7818
tal	-10.7829
CH	-10.7832
▁sisters	-10.7832
▁bound	-10.7834
▁fianc	-10.7846
▁Columbo	-10.785
▁ice	-10.7866
▁n	-10.7869
▁size	-10.7876
▁du	-10.7877
▁Betty	-10.7879
▁Italy	-10.788
▁entry	-10.7881
▁60'	-10.7884
▁retarded	-10.7885
▁revolves	-10.7891
▁Ex	-10.7895
▁castle	-10.7897
Who	-10.79
die	-10.79
▁significant	-10.7901
▁Woody	-10.7901
▁pal	-10.7903
▁Sir	-10.7906
▁border	-10.7913
▁Carpenter	-10.7914
▁Master	-10.7925
▁throws	-10.7937
▁exceptional	-10.7947
▁Sutherland	-10.795
▁credibility	-10.795
▁urban	-10.795
▁Carl	-10.795
▁embarrassed	-10.7953
▁coach	-10.7954
IC	-10.7954
▁enjoying	-10.796
ink	-10.7961
▁tense	-10.7962
▁letter	-10.7964
▁explains	-10.7965
▁Later	-10.7966
▁spy	-10.7969
Star	-10.7969
▁quote	-10.7974
▁raw	-10.7981
▁idiotic	-10.7984
▁Pacino	-10.7985
▁necessarily	-10.7985
▁heaven	-10.7985
▁countries	-10.7986
▁strip	-10.7986
▁8/10	-10.7986
ax	-10.7988
cher	-10.7988
▁Caine	-10.799
▁presentation	-10.7992
ng	-10.7996
▁flaw	-10.7996
▁Victor	-10.7999
▁parent	-10.7999
▁cant	-10.8002
▁Ke	-10.8008
▁Australia	-10.8011
▁realise	-10.8017
▁spell	-10.8019
TH	-10.8021
▁breathtaking	-10.8021
▁1940	-10.8022
▁kung	-10.8022
▁carries	-10.8023
▁ba	-10.8025
▁credible	-10.8027
▁screenwriter	-10.8028
▁guessing	-10.8029
▁caring	-10.8034
▁flawed	-10.8038
▁properly	-10.804
face	-10.8044
▁Page	-10.8048
gue	-10.8051
▁Prince	-10.8057
▁Greek	-10.8058
▁Bergman	-10.8058
▁backdrop	-10.8058
▁Catherine	-10.8064
▁corner	-10.8073
▁fix	-10.8078
▁Hill	-10.8081
▁Hal	-10.8082
▁Music	-10.8083
▁Play	-10.8084
/10	-10.8087
▁wanna	-10.8093
▁appalling	-10.8094
▁gripping	-10.8094
▁lazy	-10.8094
▁medical	-10.8094
▁underground	-10.8095
▁attempting	-10.8096
▁Lloyd	-10.8097
▁sold	-10.8097
▁Ti	-10.8101
lf	-10.8106
▁trick	-10.8108
▁theory	-10.8122
▁BE	-10.813
▁alright	-10.813
").	-10.8132
▁convey	-10.8133
US	-10.8134
▁specific	-10.8134
▁reveals	-10.8135
"),	-10.8136
By	-10.8138
▁Golden	-10.8141
▁rule	-10.8142
▁dig	-10.8147
ET	-10.8148
coming	-10.8149
▁pen	-10.8155
▁challenge	-10.8156
▁craft	-10.816
...)	-10.8163
▁dinner	-10.8167
▁aliens	-10.8167
▁Stanwyck	-10.817
▁Devil	-10.8172
▁lay	-10.8172
▁trap	-10.8172
har	-10.8173
ending	-10.8173
▁beloved	-10.8176
!),	-10.8183
OK	-10.8184
ess	-10.819
▁boot	-10.8193
▁racism	-10.8203
▁Soviet	-10.8203
▁forest	-10.8205
IT	-10.8214
Michael	-10.8219
▁hole	-10.822
▁Col	-10.8221
▁Unlike	-10.8223
▁causes	-10.8224
▁snow	-10.8238
rn	-10.8239
▁magazine	-10.824
▁striking	-10.824
▁Grace	-10.8241
▁***	-10.8243
▁Wolf	-10.8245
▁lonely	-10.8245
▁Satan	-10.8246
comedy	-10.825
▁Basically	-10.8258
▁guard	-10.8261
ica	-10.8262
hr	-10.8263
▁em	-10.8264
▁Our	-10.8268
▁Super	-10.827
▁identify	-10.8277
bar	-10.8283
▁Blair	-10.8284
▁Philip	-10.8284
▁glimpse	-10.8285
50	-10.8286
▁perfection	-10.8287
Ca	-10.8287
▁Tommy	-10.8289
▁fictional	-10.8289
▁chilling	-10.829
▁Laura	-10.8297
▁stays	-10.8304
ons	-10.8306
▁answers	-10.8307
▁deadly	-10.8309
gar	-10.8312
▁graphics	-10.8313
▁confusion	-10.8314
▁holiday	-10.8314
▁sleazy	-10.8314
▁lovable	-10.8314
▁Chuck	-10.8315
▁cynical	-10.8317
▁weight	-10.8322
▁Grant	-10.8335
hero	-10.8336
▁Award	-10.834
▁ro	-10.834
▁rid	-10.8341
▁Val	-10.8343
▁learning	-10.8344
▁lights	-10.8346
▁dogs	-10.8348
▁franchise	-10.8351
▁achievement	-10.8352
▁Marie	-10.8358
▁helping	-10.8359
▁robot	-10.8359
ec	-10.8361
▁Oliver	-10.8361
▁awards	-10.8363
▁Something	-10.8364
▁hooked	-10.8367
▁stretch	-10.8368
▁Meanwhile	-10.8369
▁Along	-10.8372
bel	-10.8375
rie	-10.8383
▁obsession	-10.8388
▁criminals	-10.8389
▁Sinatra	-10.8392
▁Bi	-10.84
▁Movies	-10.84
▁views	-10.8402
▁min	-10.841
▁Had	-10.8411
ute	-10.8424
▁honor	-10.8425
▁sinister	-10.8426
▁argue	-10.8426
▁attacked	-10.8427
▁sorts	-10.8428
▁sentimental	-10.8438
▁Hardy	-10.8438
▁letting	-10.844
▁Definitely	-10.8442
▁wears	-10.8444
▁served	-10.845
▁react	-10.8452
▁Welles	-10.846
room	-10.846
gin	-10.8464
▁block	-10.8464
▁controversial	-10.8465
▁boredom	-10.8465
▁ham	-10.8466
▁useless	-10.8477
▁angle	-10.8477
ombie	-10.8484
▁settings	-10.8486
▁slight	-10.8489
cer	-10.85
▁queen	-10.8501
▁corrupt	-10.8504
▁shake	-10.8509
▁ironic	-10.851
▁purely	-10.851
▁stunts	-10.8515
▁storm	-10.8516
▁Seriously	-10.8519
▁miles	-10.8524
▁clips	-10.8528
nic	-10.8529
▁Ni	-10.8534
▁manager	-10.8536
▁tour	-10.8538
▁minds	-10.8544
▁quest	-10.8548
▁hundred	-10.8553
▁wasting	-10.8555
tes	-10.8555
fin	-10.8563
ory	-10.8564
▁struggles	-10.8566
▁aired	-10.8576
▁School	-10.8577
▁exercise	-10.8577
▁pack	-10.8578
▁editor	-10.858
▁thousands	-10.8583
▁replaced	-10.8587
▁Besides	-10.8595
ini	-10.8599
ries	-10.86
ura	-10.8612
▁1990	-10.8615
▁Pitt	-10.8617
▁Fa	-10.8622
▁determined	-10.8623
▁wins	-10.8628
▁EVER	-10.8628
Car	-10.863
list	-10.8634
aged	-10.8634
▁Lost	-10.8635
▁Someone	-10.8636
▁Si	-10.8641
▁creep	-10.8643
▁atmospheric	-10.8654
▁innocence	-10.8654
▁Mexico	-10.8654
▁Cameron	-10.8654
pol	-10.8659
▁broke	-10.8662
▁searching	-10.8662
▁Roman	-10.8664
▁1.	-10.8665
▁worry	-10.867
▁sleeping	-10.8672
when	-10.8673
▁Pu	-10.8678
ski	-10.868
▁ya	-10.8684
friend	-10.8685
▁Kennedy	-10.8692
▁investigate	-10.8692
▁REALLY	-10.8692
▁HBO	-10.8693
▁7/10	-10.8693
▁Burton	-10.8696
▁wealthy	-10.8698
▁Dog	-10.8703
▁pun	-10.8709
▁push	-10.8714
▁En	-10.8715
▁arms	-10.8719
▁Grand	-10.872
▁adding	-10.8724
▁Tr	-10.8726
▁dear	-10.8726
▁killers	-10.873
▁imaginative	-10.8731
Mo	-10.8731
▁ripped	-10.8732
▁Freeman	-10.8732
▁accepted	-10.8733
▁prostitute	-10.8734
grade	-10.8735
▁admire	-10.8738
▁complain	-10.8742
▁PG	-10.8746
▁technique	-10.875
▁Sorry	-10.875
▁bond	-10.8753
hop	-10.8756
▁punk	-10.8756
▁/>(	-10.8756
after	-10.8763
▁intensity	-10.8769
▁tribute	-10.8769
▁opened	-10.8771
▁Walker	-10.8772
▁BAD	-10.8773
igh	-10.8779
away	-10.8782
▁spiritual	-10.8784
▁mirror	-10.8789
▁deaths	-10.8797
board	-10.8805
nie	-10.8807
▁Reynolds	-10.8808
▁plots	-10.8809
▁raise	-10.8813
▁Dream	-10.8817
▁spoken	-10.882
▁meaningful	-10.8824
▁competent	-10.8835
▁Flynn	-10.8847
▁vacation	-10.8847
▁broadcast	-10.8848
▁laid	-10.8849
Ra	-10.8852
▁carrying	-10.8854
▁Family	-10.8856
▁Vincent	-10.8857
▁Obviously	-10.8857
▁artists	-10.8859
▁resort	-10.8868
other	-10.8872
ened	-10.8878
▁hook	-10.8878
▁Top	-10.8882
▁picks	-10.8882
▁Ya	-10.8883
▁Angel	-10.8886
cro	-10.8886
▁homage	-10.8887
▁Britain	-10.8887
▁Drew	-10.8888
"?	-10.8888
ese	-10.8896
▁Freddy	-10.8896
▁lacked	-10.8896
human	-10.8898
▁tr	-10.8905
▁exists	-10.8906
▁brand	-10.8907
ani	-10.8908
pper	-10.8909
▁ratings	-10.8909
▁hill	-10.8918
▁Bollywood	-10.8926
▁horrendous	-10.8926
▁portrait	-10.8926
▁toilet	-10.8928
sky	-10.8928
▁Jamie	-10.8933
▁Sal	-10.8936
▁Acting	-10.895
▁Matthau	-10.8965
▁Tarantino	-10.8965
▁miserably	-10.8965
cast	-10.8967
▁werewolf	-10.8969
▁stranger	-10.8972
▁Monster	-10.8976
▁kiss	-10.898
▁neck	-10.8984
▁minimal	-10.8987
▁suffered	-10.8987
▁cringe	-10.8989
▁metal	-10.8995
ill	-10.9002
▁commit	-10.9002
▁sings	-10.9003
▁fond	-10.9004
▁Universal	-10.9005
▁endearing	-10.9005
▁uninspired	-10.9006
▁attacks	-10.9006
▁attraction	-10.9007
▁Ever	-10.9016
▁0	-10.9016
ress	-10.9021
▁drives	-10.9024
len	-10.9026
▁mere	-10.9026
UN	-10.9027
▁marvelous	-10.9032
▁threat	-10.9034
---	-10.9034
series	-10.9035
▁Christ	-10.9036
▁uncomfortable	-10.9045
▁ultra	-10.9045
▁discussion	-10.9047
▁pool	-10.9048
▁moon	-10.9052
▁shines	-10.9052
▁Michelle	-10.9054
▁River	-10.9054
▁pin	-10.9056
aka	-10.906
lia	-10.9063
▁bare	-10.9064
▁showcase	-10.9065
▁guts	-10.907
▁bucks	-10.9079
ition	-10.9081
▁surrounding	-10.9081
▁v	-10.9083
self	-10.9084
▁explicit	-10.9085
▁triumph	-10.9085
▁scheme	-10.9085
▁2001	-10.9086
▁attempted	-10.909
Mar	-10.9091
▁SPOILERS	-10.9093
▁enjoyment	-10.9101
nal	-10.9102
▁Home	-10.9105
▁thoughts	-10.9114
▁k	-10.9119
▁express	-10.9122
▁escapes	-10.9124
▁response	-10.9125
▁greatly	-10.9129
▁annoyed	-10.9133
Al	-10.9139
air	-10.9142
▁thrilling	-10.9143
▁90'	-10.9143
▁consequences	-10.9149
▁figures	-10.9151
▁month	-10.9155
▁button	-10.9164
▁melodramatic	-10.9167
sp	-10.9171
▁Lisa	-10.9174
▁flawless	-10.9178
done	-10.9183
tta	-10.9184
▁colour	-10.9188
▁sa	-10.9189
Robert	-10.9189
▁Poor	-10.919
▁Full	-10.9192
view	-10.9194
▁neighbor	-10.9195
AS	-10.9205
▁stiff	-10.9206
▁Nancy	-10.9206
▁Comedy	-10.9207
▁blockbuster	-10.9209
▁depend	-10.9211
dis	-10.9222
place	-10.9227
point	-10.923
school	-10.923
liners	-10.9232
▁nightmare	-10.9236
tch	-10.9239
▁Del	-10.9242
▁restaurant	-10.9247
▁sexuality	-10.9254
▁instantly	-10.9256
▁oil	-10.9257
▁Khan	-10.9258
▁l	-10.9264
▁True	-10.9266
▁techniques	-10.9267
▁profound	-10.9275
▁hiding	-10.9288
▁lying	-10.9297
▁novels	-10.9297
pin	-10.9298
▁Probably	-10.93
▁**	-10.9306
▁Alien	-10.9308
▁defend	-10.931
▁adventures	-10.9311
Jack	-10.9318
▁shy	-10.9322
hood	-10.9327
▁personalities	-10.933
▁Ten	-10.9334
▁bull	-10.9341
▁tied	-10.9342
▁intent	-10.9342
▁troubled	-10.9348
▁connected	-10.9349
▁behave	-10.9349
▁ideal	-10.9356
cal	-10.9358
▁heist	-10.936
▁trial	-10.9364
▁courage	-10.9365
▁Things	-10.9369
▁Connery	-10.937
▁neighborhood	-10.937
▁contract	-10.937
gh	-10.9373
▁Ki	-10.9373
▁successfully	-10.9375
▁Rachel	-10.9377
▁frequently	-10.9378
▁press	-10.9379
▁fallen	-10.938
▁appearing	-10.9384
▁Ball	-10.939
▁ego	-10.9395
▁notch	-10.9396
▁belongs	-10.9397
▁sacrifice	-10.9398
▁thousand	-10.9404
▁ensemble	-10.9411
▁revelation	-10.9412
▁Bobby	-10.9413
▁finger	-10.9413
▁proof	-10.9414
zy	-10.9419
!!!!!	-10.9421
▁Check	-10.943
▁Th	-10.9433
ush	-10.9433
▁neat	-10.9441
ame	-10.9441
▁45	-10.9444
▁motivation	-10.9446
▁Andrews	-10.945
pping	-10.945
eau	-10.9451
▁4/10	-10.9454
▁performers	-10.9458
▁teach	-10.946
stop	-10.9466
▁colorful	-10.9468
▁intention	-10.9477
now	-10.948
▁link	-10.9492
▁notable	-10.9492
▁competition	-10.9494
▁happiness	-10.9494
▁nowadays	-10.9494
▁fortune	-10.9494
▁Owen	-10.9495
▁merit	-10.95
▁Jessica	-10.9501
▁grim	-10.9501
▁Ab	-10.9502
▁Way	-10.9502
core	-10.9505
▁stinker	-10.9506
▁friendly	-10.9512
▁pl	-10.9515
▁gift	-10.9519
▁Sally	-10.9523
eck	-10.9527
▁crafted	-10.9527
▁essential	-10.9527
▁protagonists	-10.9528
OL	-10.9528
van	-10.953
ari	-10.9531
▁Hunt	-10.9535
▁ourselves	-10.9536
▁flop	-10.9537
▁Korean	-10.9538
▁Bell	-10.9538
▁bill	-10.9543
▁struck	-10.9546
▁Such	-10.9551
▁urge	-10.9556
▁upper	-10.9558
acting	-10.9561
▁drags	-10.9561
▁outrageous	-10.9565
▁Give	-10.9566
under	-10.9572
▁dealt	-10.9576
▁curiosity	-10.9578
▁professor	-10.9578
▁superficial	-10.9578
▁afford	-10.9578
▁captain	-10.9578
▁sidekick	-10.9578
▁Rain	-10.9582
▁acceptable	-10.9582
▁shower	-10.9584
▁blast	-10.9587
▁Right	-10.9589
uinn	-10.9591
ates	-10.9597
▁fr	-10.9601
▁lessons	-10.9601
▁Dave	-10.9603
▁advance	-10.9603
▁Burt	-10.9605
▁poster	-10.9605
ock	-10.9607
▁settle	-10.9607
why	-10.9607
▁relative	-10.9608
▁closely	-10.9613
▁benefit	-10.9618
▁kidnapped	-10.962
▁dragged	-10.9621
▁Jan	-10.9621
▁hunt	-10.9627
zi	-10.9631
▁Police	-10.9632
▁Ru	-10.9633
▁rap	-10.9633
▁Tri	-10.9635
▁seeking	-10.9637
ability	-10.9642
▁offering	-10.9648
▁physically	-10.9649
▁spending	-10.9651
▁Mer	-10.966
▁Mu	-10.9661
make	-10.9661
▁document	-10.9662
▁repetitive	-10.9662
▁string	-10.9662
▁unforgettable	-10.9663
hether	-10.9663
▁shorts	-10.9663
▁Powell	-10.9664
▁wave	-10.9666
▁Lugosi	-10.9666
▁beast	-10.9668
▁Dragon	-10.9671
hal	-10.9674
▁concerns	-10.9677
See	-10.9685
▁Gar	-10.9688
20	-10.9689
▁meat	-10.9695
SE	-10.97
▁rain	-10.9701
▁Arnold	-10.9705
▁investigation	-10.9705
▁knife	-10.9705
▁disease	-10.9705
gla	-10.9706
▁stealing	-10.9708
▁disappoint	-10.9708
▁aged	-10.971
▁madness	-10.9712
▁critic	-10.972
▁unit	-10.9725
▁plague	-10.9731
▁MA	-10.9733
Unfortunately	-10.9733
▁insulting	-10.9742
▁eerie	-10.9748
▁chasing	-10.9748
▁trite	-10.9749
▁jumps	-10.9751
▁examples	-10.9755
▁Cinema	-10.9756
▁hopefully	-10.9759
ku	-10.9768
▁farce	-10.9769
▁intrigue	-10.9774
set	-10.9775
▁slap	-10.979
▁assassin	-10.979
▁eccentric	-10.9791
▁sneak	-10.9791
▁daily	-10.9791
EL	-10.9792
▁chases	-10.9793
▁Ralph	-10.9796
▁dollar	-10.9798
▁Soon	-10.98
▁Personally	-10.9801
▁swear	-10.9812
▁hundreds	-10.9817
▁im	-10.9818
▁Bur	-10.9819
▁Wild	-10.9821
▁facts	-10.9829
long	-10.9831
▁thirty	-10.9834
▁newspaper	-10.9834
▁Kid	-10.9834
▁portion	-10.9837
▁throat	-10.984
▁1930	-10.9843
▁initially	-10.9852
▁darkness	-10.9853
▁achieved	-10.9854
▁hype	-10.9857
▁legs	-10.9858
love	-10.9861
▁Fire	-10.9861
▁Maria	-10.9864
▁Force	-10.9864
▁beating	-10.9865
▁pe	-10.9867
▁General	-10.9874
▁Wind	-10.9877
▁Nelson	-10.9877
▁essence	-10.9877
▁dubbing	-10.9877
▁irony	-10.9881
▁subplot	-10.9881
▁Min	-10.9888
▁AT	-10.9897
▁sexually	-10.9897
hole	-10.99
▁maker	-10.99
Paul	-10.9907
▁lust	-10.9907
ara	-10.9918
▁revolution	-10.992
▁charisma	-10.992
▁incoherent	-10.9921
▁24	-10.9924
▁chuckle	-10.9931
▁talked	-10.9934
▁Kar	-10.9936
vy	-10.9938
▁appearances	-10.994
▁row	-10.9943
▁checking	-10.9943
▁develops	-10.9946
▁lesser	-10.9947
▁load	-10.9948
ium	-10.9951
Where	-10.9951
▁sends	-10.9953
▁Ju	-10.9954
▁Witch	-10.9954
▁generous	-10.9964
▁obscure	-10.9964
▁cried	-10.9964
▁hoped	-10.9974
▁sin	-10.9975
▁Heaven	-10.9977
try	-10.999
▁Je	-10.9993
▁split	-10.9993
▁beer	-10.9994
Director	-10.9995
▁packed	-11.0002
▁Fi	-11.0005
▁album	-11.0008
▁library	-11.0008
▁clown	-11.0008
▁Laurel	-11.0008
▁transition	-11.0008
▁tea	-11.001
▁Mitchell	-11.0012
▁established	-11.0015
▁shadow	-11.0017
▁cons	-11.0019
▁m	-11.002
▁loser	-11.0024
▁fourth	-11.0025
▁cameos	-11.0028
▁spark	-11.0029
▁plant	-11.0031
▁beg	-11.0036
video	-11.0039
▁easier	-11.0052
▁internet	-11.0052
▁Holly	-11.0053
▁j	-11.0055
▁Duke	-11.0057
▁bath	-11.0059
ump	-11.0059
▁ta	-11.0064
ok	-11.0064
▁Superman	-11.0065
▁rushed	-11.0066
▁larger	-11.0068
▁Power	-11.0069
▁outcome	-11.007
▁titles	-11.0074
▁shirt	-11.0074
▁confront	-11.0077
▁Hope	-11.0077
▁millions	-11.0079
mu	-11.0084
▁Pan	-11.0087
ik	-11.0088
pri	-11.0088
▁strangely	-11.0093
tty	-11.0095
Lo	-11.0095
▁cardboard	-11.0097
▁importantly	-11.0099
▁Baker	-11.0099
hour	-11.01
▁opposed	-11.0101
▁Jonathan	-11.0102
nce	-11.0102
▁breasts	-11.0103
▁wannabe	-11.0104
▁guest	-11.0105
ced	-11.0108
minded	-11.0111
▁Return	-11.0115
▁Next	-11.0118
▁handful	-11.0118
▁refuses	-11.0121
pos	-11.0123
▁wa	-11.0131
▁tricks	-11.0136
▁ruthless	-11.0141
▁threw	-11.0141
▁persona	-11.0145
▁expensive	-11.0146
tel	-11.0148
▁lift	-11.0148
bin	-11.0153
▁faced	-11.0156
ula	-11.0157
ena	-11.0161
▁Call	-11.0163
▁dancer	-11.0169
Maybe	-11.017
Good	-11.0174
▁Ch	-11.0175
▁suggests	-11.0178
▁Cr	-11.0179
▁Heart	-11.018
▁Chicago	-11.0185
▁practice	-11.0185
▁relevant	-11.0185
▁montage	-11.0185
▁pointed	-11.0186
▁installment	-11.0186
▁Ram	-11.0187
▁mar	-11.0188
▁Sea	-11.0189
▁function	-11.019
▁Sidney	-11.0191
▁carefully	-11.0197
type	-11.0204
▁repeatedly	-11.0204
q	-11.0212
▁pitch	-11.0218
▁riding	-11.0221
▁command	-11.0227
▁maintain	-11.0229
▁nonetheless	-11.023
teen	-11.0231
▁Pe	-11.0231
▁thick	-11.0232
▁Picture	-11.0242
▁National	-11.0243
▁2000	-11.0244
▁engaged	-11.0244
lot	-11.0245
▁forgive	-11.0245
▁grows	-11.0258
▁creators	-11.0259
▁hysterical	-11.0262
minute	-11.0264
▁Thing	-11.0264
Like	-11.0265
▁requires	-11.0272
lee	-11.0274
▁unpleasant	-11.0275
▁9/10	-11.0276
▁Science	-11.0276
▁Hat	-11.0277
▁basement	-11.0277
▁Clint	-11.0279
nes	-11.0279
▁Carol	-11.0283
TER	-11.0284
▁selfish	-11.0284
▁Father	-11.0285
▁adapted	-11.0287
▁Pretty	-11.0289
▁bridge	-11.029
look	-11.0292
▁web	-11.0293
▁sky	-11.0297
▁ON	-11.03
▁wishes	-11.0303
▁tremendous	-11.0308
▁definite	-11.0308
press	-11.0312
▁blows	-11.0314
▁complaint	-11.0318
▁ambitious	-11.0321
▁ninja	-11.0321
▁virus	-11.0321
▁2005	-11.0321
▁increasingly	-11.0325
ew	-11.0327
▁wondered	-11.0327
▁selling	-11.0329
sses	-11.0333
▁landscape	-11.0334
▁mistaken	-11.0334
Con	-11.0339
▁scientists	-11.0351
▁jealous	-11.0356
nni	-11.036
▁harm	-11.0363
▁ra	-11.0363
▁bottle	-11.0366
▁terrifying	-11.0366
▁spread	-11.0366
▁westerns	-11.037
▁happily	-11.0373
▁sophisticated	-11.0376
AD	-11.0377
▁ear	-11.0379
▁buff	-11.0382
▁suits	-11.0382
▁freak	-11.0385
▁pleasantly	-11.0389
only	-11.039
▁reel	-11.0391
▁belong	-11.0399
cc	-11.0399
▁guilt	-11.0402
sta	-11.0404
▁kicks	-11.0405
▁glass	-11.0408
▁Catholic	-11.0412
▁resolution	-11.0412
▁medium	-11.0412
▁tank	-11.0413
▁chest	-11.0413
▁tit	-11.0416
▁beaten	-11.0418
▁resist	-11.0419
part	-11.0419
▁Secret	-11.042
▁reasonably	-11.0422
▁racial	-11.0422
ella	-11.0423
▁Leslie	-11.0424
▁locked	-11.0424
▁attracted	-11.0426
▁stated	-11.0427
was	-11.0428
▁busy	-11.0429
▁Die	-11.0432
Here	-11.0434
▁ghosts	-11.0444
▁fairy	-11.0446
▁Rogers	-11.0452
itz	-11.0457
▁companion	-11.0457
▁explore	-11.0458
▁brilliance	-11.0458
▁Fonda	-11.0458
▁precious	-11.0458
▁dropped	-11.0458
▁Video	-11.0462
▁cowboy	-11.0462
▁accused	-11.0463
MA	-11.0465
▁candy	-11.0466
▁Highly	-11.0467
▁bin	-11.0469
▁Emily	-11.047
Watch	-11.0472
▁Mann	-11.048
▁sn	-11.0484
▁studios	-11.0486
▁spoiled	-11.0493
▁Russia	-11.05
▁elaborate	-11.0504
▁bleak	-11.0504
▁documentaries	-11.0504
▁logical	-11.0506
▁1/10	-11.0506
bie	-11.051
▁mansion	-11.0514
▁thrills	-11.0516
arm	-11.0518
▁fitting	-11.0522
▁journalist	-11.0526
▁hi	-11.0531
▁spots	-11.0533
▁explosions	-11.0541
▁pleased	-11.0543
▁splendid	-11.055
▁Austen	-11.055
19	-11.055
▁piano	-11.055
▁Buddy	-11.0551
▁Know	-11.0551
▁elsewhere	-11.0554
▁Angeles	-11.0554
▁Hudson	-11.0555
▁Frankenstein	-11.0555
ude	-11.0556
▁Germans	-11.0564
▁interaction	-11.057
▁Think	-11.0572
▁commercials	-11.0579
▁ignored	-11.0582
▁goal	-11.0583
▁Dad	-11.0591
▁hall	-11.0591
?).	-11.0592
▁Francis	-11.0596
▁Altman	-11.0597
▁digital	-11.0597
▁stood	-11.0597
▁stops	-11.0599
▁intentions	-11.0602
▁photographer	-11.0608
▁leg	-11.061
paced	-11.0615
▁stress	-11.0616
▁gotta	-11.0623
ank	-11.0627
▁dialogs	-11.0628
▁provid	-11.0632
▁Mil	-11.0632
▁remaining	-11.0637
▁Emma	-11.064
▁Ice	-11.0643
▁Cusack	-11.0643
▁horrid	-11.0643
▁slick	-11.0644
▁Hopper	-11.0644
200	-11.065
▁Sandra	-11.0651
▁Could	-11.0651
▁1/2	-11.0654
▁lifestyle	-11.0655
▁Ge	-11.0659
uite	-11.0662
▁jobs	-11.0663
▁occur	-11.0663
lie	-11.0667
▁Real	-11.0671
▁notion	-11.0672
Co	-11.068
▁Book	-11.0683
▁briefly	-11.0685
▁tortured	-11.0688
▁exchange	-11.069
▁Foster	-11.0691
▁awake	-11.0691
▁3/10	-11.0693
▁productions	-11.0694
▁fancy	-11.0694
eyed	-11.0694
▁drivel	-11.0698
▁accomplished	-11.0702
also	-11.0705
▁musicals	-11.0714
▁infamous	-11.0715
LL	-11.0719
▁curse	-11.0721
▁evident	-11.0724
▁pot	-11.073
worthy	-11.0732
▁fifteen	-11.0737
▁menacing	-11.0737
▁wicked	-11.0737
▁nine	-11.0737
▁jazz	-11.0737
▁inventive	-11.0738
▁Willis	-11.0742
▁elderly	-11.0743
▁heroic	-11.0745
▁destruction	-11.0746
▁photographed	-11.0746
▁Nazis	-11.0746
uk	-11.0751
▁watches	-11.0755
▁21	-11.0756
▁Make	-11.0757
▁screw	-11.0768
Bo	-11.077
▁health	-11.0775
▁Land	-11.0778
Finally	-11.078
night	-11.0781
book	-11.0782
▁pseudo	-11.0785
▁inevitable	-11.0785
▁Walken	-11.0785
▁daring	-11.0786
sign	-11.0789
▁Cole	-11.0791
▁Angela	-11.0795
▁Almost	-11.0796
▁icon	-11.0796
▁associated	-11.0796
elli	-11.08
▁flash	-11.0808
ux	-11.0809
▁hideous	-11.0811
▁trade	-11.0813
▁reasonable	-11.0816
▁encourage	-11.0816
▁Son	-11.0816
▁typically	-11.0817
▁Ver	-11.0818
▁tons	-11.0818
lum	-11.0821
▁ca	-11.0827
▁detract	-11.0832
▁calm	-11.0833
▁Graham	-11.0833
▁liking	-11.0833
▁Woman	-11.0834
▁antics	-11.0835
▁attached	-11.0836
▁countless	-11.0836
000	-11.0836
▁importance	-11.0836
▁Madonna	-11.0837
▁Air	-11.0839
▁recording	-11.0839
new	-11.084
wn	-11.0841
▁timeless	-11.0841
▁raped	-11.0847
▁Down	-11.0848
▁fighter	-11.0848
▁lend	-11.0849
▁Classic	-11.0849
THE	-11.0857
▁uniform	-11.0858
▁Bre	-11.0861
maybe	-11.0871
▁states	-11.0873
mate	-11.0875
cus	-11.0875
▁celluloid	-11.088
▁combat	-11.088
▁wine	-11.0881
▁Carrey	-11.0881
▁failing	-11.0881
▁reflect	-11.0885
▁Matrix	-11.0886
ENT	-11.0888
▁surrounded	-11.0889
▁cup	-11.0892
AND	-11.0894
▁possessed	-11.0899
▁card	-11.0911
▁50'	-11.0911
▁idiots	-11.0911
▁Hurt	-11.0912
▁incident	-11.0913
▁revealing	-11.0915
▁loosely	-11.0918
▁listed	-11.092
▁demands	-11.0926
fire	-11.0928
▁disjointed	-11.0928
▁unwatchable	-11.0928
▁distance	-11.0928
▁staff	-11.0928
▁audio	-11.0928
▁popcorn	-11.0928
▁Canada	-11.0929
▁frustrated	-11.093
▁Kirk	-11.0931
▁detailed	-11.0934
▁horses	-11.0936
▁Linda	-11.0941
▁aimed	-11.0943
▁Wal	-11.0943
▁Dev	-11.0944
ched	-11.0952
▁impress	-11.0954
▁saves	-11.0956
▁reactions	-11.0964
▁Camp	-11.0964
▁spare	-11.0967
iff	-11.0968
▁Vampire	-11.0968
bal	-11.0973
▁loyal	-11.0975
▁meaningless	-11.0976
▁believing	-11.0977
▁liberal	-11.0977
▁charismatic	-11.0977
▁Ross	-11.0977
▁passionate	-11.0978
▁inspiring	-11.0983
▁phrase	-11.0984
▁ONE	-11.0988
▁Excellent	-11.0988
▁cases	-11.0993
▁pulling	-11.0998
▁gal	-11.0998
▁Grade	-11.1006
▁west	-11.1007
▁Te	-11.1007
▁cheer	-11.101
▁fatal	-11.1011
▁Hanks	-11.1015
cap	-11.1021
▁Indians	-11.1023
▁president	-11.1025
▁silence	-11.1025
▁shoots	-11.1026
▁Uncle	-11.1026
▁involvement	-11.1026
ob	-11.1028
▁pit	-11.1032
▁sport	-11.1035
▁gentle	-11.1037
ering	-11.1038
▁offended	-11.1039
▁Bro	-11.1039
▁Cl	-11.104
▁angel	-11.104
▁Living	-11.1044
▁steps	-11.105
▁lab	-11.1053
▁Lake	-11.1057
▁Victoria	-11.1059
OO	-11.1061
▁Nor	-11.1065
David	-11.1066
▁devil	-11.1073
▁helicopter	-11.1074
▁symbolism	-11.1075
▁transformation	-11.1077
▁drunken	-11.1079
▁Blake	-11.1079
▁duo	-11.108
▁burst	-11.1082
nish	-11.1082
▁overdone	-11.1085
▁scar	-11.109
▁segments	-11.1091
▁Whatever	-11.1096
did	-11.1103
hand	-11.1105
▁ticket	-11.1106
▁preview	-11.1106
cle	-11.1108
▁killings	-11.1109
because	-11.1115
▁rely	-11.1117
Un	-11.1119
▁Argento	-11.1123
▁Hamilton	-11.1123
▁Spielberg	-11.1123
▁ABC	-11.1123
▁causing	-11.1123
▁habit	-11.1123
▁Gabriel	-11.1126
▁Dis	-11.1128
▁Murray	-11.1128
▁def	-11.1128
▁jumping	-11.113
▁cared	-11.113
▁Summer	-11.113
movies	-11.113
▁Lucy	-11.1131
▁unintentionally	-11.1134
▁fi	-11.1136
▁receive	-11.1139
▁arrive	-11.1139
▁Franco	-11.114
▁dr	-11.1145
▁Penn	-11.1147
▁videos	-11.1149
net	-11.1151
▁argument	-11.1155
▁kinds	-11.1156
▁counter	-11.116
▁Lots	-11.1166
▁stole	-11.1168
▁Roll	-11.1171
▁buried	-11.1172
▁Alexander	-11.1172
▁Fiction	-11.1172
▁Knight	-11.1173
▁Burns	-11.1173
wing	-11.1173
▁comfortable	-11.1174
pen	-11.1174
Still	-11.1175
▁reflection	-11.1176
▁childish	-11.1182
▁directorial	-11.1185
▁Special	-11.1185
▁ranks	-11.1185
▁torn	-11.119
▁painting	-11.1193
▁span	-11.1194
Dr	-11.1194
▁burned	-11.1202
put	-11.1202
▁Water	-11.1207
ose	-11.1207
▁returning	-11.1208
LA	-11.1211
▁individuals	-11.1216
▁continued	-11.1217
▁2)	-11.1219
▁homosexual	-11.122
▁Gothic	-11.1222
▁CIA	-11.1222
▁grandfather	-11.1222
▁vicious	-11.1222
▁picking	-11.1224
▁rebel	-11.1226
▁overwhelming	-11.1226
▁sadistic	-11.123
▁displays	-11.1231
▁thrillers	-11.1233
▁ridiculously	-11.1233
▁stone	-11.1249
ui	-11.1254
nder	-11.1254
▁tame	-11.1257
▁improve	-11.1268
▁Oz	-11.1271
▁Lincoln	-11.1271
▁abilities	-11.1271
▁devoid	-11.1271
▁illegal	-11.1271
▁territory	-11.1271
▁rural	-11.1272
▁spooky	-11.1274
▁Jake	-11.1285
▁worthless	-11.1288
▁returned	-11.1289
▁su	-11.129
hoo	-11.1294
▁Glenn	-11.1295
▁escaped	-11.1297
▁weapon	-11.1307
▁III	-11.1308
▁subsequent	-11.1308
▁thrill	-11.1309
▁defeat	-11.131
drama	-11.1314
▁Campbell	-11.1321
▁guitar	-11.1321
▁narrator	-11.1321
▁respond	-11.1321
▁Rick	-11.1323
▁Carter	-11.1323
▁ANY	-11.1325
▁extended	-11.1328
▁Ghost	-11.1336
▁whoever	-11.1339
ett	-11.135
▁Chase	-11.135
▁purchase	-11.1355
▁goodness	-11.136
such	-11.1366
▁highlights	-11.1367
▁Swedish	-11.1372
▁abysmal	-11.1372
▁implausible	-11.1372
▁french	-11.1372
▁funeral	-11.1372
▁2006	-11.1372
▁Train	-11.1372
▁Mother	-11.1373
▁affection	-11.1374
ther	-11.1377
▁terrorist	-11.1378
▁Lawrence	-11.1379
IR	-11.1379
▁Tu	-11.1384
▁Norman	-11.1387
▁conventional	-11.1392
▁Neil	-11.1393
▁hitting	-11.1394
▁advise	-11.1394
unk	-11.1401
▁Rod	-11.1407
▁cure	-11.1407
▁resembles	-11.1415
......	-11.1417
▁Morris	-11.142
▁Streep	-11.1422
▁redemption	-11.1422
▁grasp	-11.1422
▁Tracy	-11.1422
▁Mario	-11.1422
▁Derek	-11.1422
▁slice	-11.1423
▁commented	-11.1426
▁Sky	-11.1427
▁ST	-11.1428
▁Dorothy	-11.1429
▁myth	-11.1432
▁hunter	-11.1433
▁traveling	-11.1436
▁bust	-11.1438
Ba	-11.1438
▁MAN	-11.1441
▁dire	-11.1442
▁allowing	-11.1443
▁bump	-11.1446
▁sentence	-11.1448
▁sole	-11.1459
▁vague	-11.146
elle	-11.1466
Despite	-11.1467
form	-11.1472
▁website	-11.1473
▁sweat	-11.1473
▁birthday	-11.1474
most	-11.1474
▁Todd	-11.1475
▁Strange	-11.1476
▁bold	-11.1478
▁pressure	-11.1478
▁delivering	-11.149
▁albeit	-11.1493
▁Fo	-11.1493
acted	-11.1495
▁lit	-11.1497
▁scripted	-11.1498
▁tender	-11.1502
▁pushed	-11.1504
▁porno	-11.1504
roll	-11.1505
▁dump	-11.1508
▁har	-11.152
▁Phil	-11.152
sco	-11.1521
▁shine	-11.1523
▁unbearable	-11.1524
▁generic	-11.1524
▁poison	-11.1524
▁bathroom	-11.1524
▁Matthew	-11.1537
▁Has	-11.1537
▁bird	-11.1538
▁affected	-11.1538
▁crush	-11.1559
▁thoughtful	-11.1562
▁nerd	-11.1566
▁represents	-11.1569
SPOILERS	-11.1574
▁worried	-11.1575
▁tall	-11.1576
▁notorious	-11.1576
▁planning	-11.1576
▁slightest	-11.1577
▁photo	-11.1578
▁transfer	-11.1582
▁Season	-11.1583
▁overlooked	-11.1587
▁Beautiful	-11.1588
box	-11.1588
show	-11.159
mal	-11.1592
▁sadness	-11.1597
wan	-11.1598
▁encounters	-11.1606
▁dimension	-11.1609
▁mild	-11.1614
▁quit	-11.1618
Most	-11.1623
▁endure	-11.1624
▁shoes	-11.1626
▁wrap	-11.1626
▁crisis	-11.1627
▁juvenile	-11.1627
▁ambition	-11.1627
▁thread	-11.1627
▁Sandler	-11.1627
▁kidding	-11.1627
▁dedicated	-11.1628
▁demons	-11.1629
▁peak	-11.163
▁golden	-11.1631
▁devoted	-11.1632
▁disturbed	-11.1633
▁cow	-11.1637
pic	-11.1637
▁GO	-11.164
rent	-11.1646
Ar	-11.1655
ology	-11.1657
makers	-11.1662
▁fired	-11.1664
▁Apart	-11.1664
▁noble	-11.1666
ou	-11.1668
▁Oscars	-11.1668
▁Set	-11.1669
▁provoking	-11.167
ada	-11.1672
great	-11.1673
▁draws	-11.1676
▁Buck	-11.1677
▁Ireland	-11.1679
Tom	-11.1679
▁mixture	-11.1679
▁duty	-11.168
▁Amanda	-11.1687
▁Diane	-11.1688
▁Talk	-11.1692
▁league	-11.1693
▁Reed	-11.1693
▁removed	-11.1696
than	-11.1697
▁tie	-11.1702
▁improved	-11.1703
▁occurs	-11.1707
matic	-11.1708
▁technically	-11.1711
▁noise	-11.1713
▁Sh	-11.1715
its	-11.1723
vision	-11.1724
table	-11.1725
▁strike	-11.1726
▁captivating	-11.1731
▁ocean	-11.1731
▁prejudice	-11.1731
▁psychiatrist	-11.1731
▁altogether	-11.1731
▁alternate	-11.1731
▁coincidence	-11.1731
▁assault	-11.1731
bert	-11.1733
▁shall	-11.1733
ail	-11.1736
▁clues	-11.1737
▁Craig	-11.1739
▁walls	-11.174
▁Claire	-11.1741
▁Consider	-11.1744
▁Murder	-11.1746
▁Saw	-11.1748
▁lake	-11.1749
▁Hey	-11.1751
▁doll	-11.1758
▁daughters	-11.1767
ulp	-11.1775
▁corpse	-11.1779
▁favour	-11.1783
▁glory	-11.1783
▁possibility	-11.1783
▁unbelievably	-11.1783
▁choreography	-11.1783
▁NEVER	-11.1783
▁unoriginal	-11.1785
eta	-11.1788
▁McC	-11.179
▁BUT	-11.1791
▁performer	-11.1793
▁Sho	-11.1798
▁intrigued	-11.1803
▁highest	-11.1803
▁Kris	-11.1803
▁misses	-11.1804
▁Unless	-11.1806
▁superbly	-11.181
▁engage	-11.1818
▁FOR	-11.1822
▁Ned	-11.1825
characterization	-11.1828
▁recorded	-11.1829
▁lyrics	-11.183
30	-11.183
▁bang	-11.183
▁lifetime	-11.1833
▁producing	-11.1836
▁simplistic	-11.1836
▁rubber	-11.1836
▁Damme	-11.1836
▁Navy	-11.1836
▁resemblance	-11.1837
▁trio	-11.1838
▁Indeed	-11.1842
▁Eva	-11.1851
▁teaching	-11.1864
▁slip	-11.1873
▁reached	-11.1873
▁Run	-11.1874
▁staying	-11.1875
▁pi	-11.1878
▁vast	-11.1879
▁owe	-11.1882
thriller	-11.1884
▁Films	-11.1884
www	-11.1886
▁classical	-11.1888
▁Frost	-11.1889
▁sloppy	-11.1889
▁chapter	-11.189
▁exaggerated	-11.1891
▁inject	-11.1891
▁Candy	-11.1891
▁et	-11.1893
▁enters	-11.1893
▁Margaret	-11.1894
▁Va	-11.1896
▁Stanley	-11.1896
▁dramas	-11.1896
lit	-11.1897
▁awe	-11.1898
▁winds	-11.1911
▁stronger	-11.1916
▁currently	-11.1921
▁stereotype	-11.1929
▁battles	-11.1929
▁Civil	-11.1942
▁Curtis	-11.1942
▁GREAT	-11.1942
▁clumsy	-11.1942
▁grandmother	-11.1942
▁Point	-11.1942
▁occurred	-11.1942
▁Glover	-11.1943
▁RO	-11.1943
ox	-11.1944
▁Union	-11.1946
▁hardcore	-11.1946
▁nearby	-11.1948
▁Turner	-11.1948
▁Wallace	-11.1948
▁metaphor	-11.1949
▁scientific	-11.1949
▁Club	-11.1949
▁Imagine	-11.1953
▁travels	-11.196
▁report	-11.1965
▁souls	-11.1972
▁discovery	-11.1976
▁involve	-11.1978
▁headed	-11.1979
▁wood	-11.1979
▁Iron	-11.1986
Movie	-11.1992
stone	-11.1994
climactic	-11.1995
▁absence	-11.1995
▁trademark	-11.1995
▁excessive	-11.1996
▁psychotic	-11.1996
motion	-11.2
▁errors	-11.2005
▁Would	-11.2005
▁relies	-11.2007
▁Brit	-11.2007
▁distracting	-11.2009
▁Nice	-11.2015
AME	-11.2018
▁Chi	-11.2019
nning	-11.2022
▁notably	-11.2024
▁Bush	-11.2024
ston	-11.2028
▁suspects	-11.2032
▁Planet	-11.2032
▁rat	-11.2033
▁guarantee	-11.2033
▁Age	-11.2035
▁explaining	-11.2038
cra	-11.204
▁virgin	-11.2048
▁depressed	-11.2049
▁silver	-11.2049
▁kitchen	-11.2049
▁Falk	-11.2049
▁population	-11.2049
▁staged	-11.2051
ison	-11.2053
▁alternative	-11.2054
▁pale	-11.2056
▁clothing	-11.2059
▁fo	-11.2059
▁Blade	-11.206
▁smoking	-11.2062
Me	-11.2063
▁Band	-11.2064
▁riot	-11.2071
▁whereas	-11.2071
zing	-11.2078
▁wont	-11.2082
▁performing	-11.2085
MP	-11.2089
James	-11.21
▁comfort	-11.2101
▁electric	-11.2102
▁blank	-11.2102
▁Kubrick	-11.2103
▁arrogant	-11.2103
▁frustration	-11.2103
▁survival	-11.2103
▁exotic	-11.2103
▁translation	-11.2103
▁proceedings	-11.2103
▁Rather	-11.2104
▁splatter	-11.2107
▁Cox	-11.2108
▁strictly	-11.211
▁Grey	-11.2111
▁areas	-11.2115
▁je	-11.2116
▁Andrew	-11.2116
▁grab	-11.2117
▁option	-11.2117
▁south	-11.2123
▁conclude	-11.2125
▁Fla	-11.2125
▁nut	-11.2126
▁hunting	-11.2131
▁witnessed	-11.2132
▁succeeded	-11.2132
eon	-11.2134
▁1950'	-11.2134
▁CD	-11.2138
hl	-11.2138
pot	-11.2139
▁tu	-11.214
▁recognized	-11.2142
▁Stooges	-11.2146
▁fears	-11.2147
dead	-11.2148
▁prop	-11.2154
▁Gra	-11.2154
shot	-11.2156
▁conspiracy	-11.2157
▁recognition	-11.2157
▁synopsis	-11.2157
▁buddies	-11.2157
▁Norris	-11.2158
▁tribe	-11.2158
▁hatred	-11.2158
▁foul	-11.2159
about	-11.2159
iro	-11.216
▁monkey	-11.2162
▁cabin	-11.217
▁tip	-11.218
Da	-11.2186
▁cards	-11.2187
▁builds	-11.2188
ns	-11.219
▁attract	-11.2192
▁influenced	-11.2193
▁predict	-11.2193
▁z	-11.2197
▁alcohol	-11.2198
▁user	-11.22
▁borrow	-11.2202
▁existed	-11.2202
▁marks	-11.2205
▁rush	-11.2206
▁Boll	-11.2206
Ka	-11.221
▁Church	-11.2212
▁Branagh	-11.2212
▁Massacre	-11.2212
▁bargain	-11.2212
▁convoluted	-11.2212
▁miserable	-11.2212
▁poverty	-11.2212
▁estate	-11.2212
▁ought	-11.2213
▁unfair	-11.2213
▁philosophy	-11.2214
▁countryside	-11.2215
▁Brando	-11.2218
pan	-11.222
▁reaches	-11.222
▁Bates	-11.222
▁Thanks	-11.2222
▁Nevertheless	-11.2223
▁Cinderella	-11.2226
▁4.	-11.2227
▁murderous	-11.2229
▁fe	-11.2231
ERS	-11.2231
▁Cal	-11.2231
▁beats	-11.2233
guy	-11.2238
▁Seven	-11.2241
▁differences	-11.2246
ius	-11.2247
▁justify	-11.2247
▁harder	-11.2257
▁trail	-11.2257
aging	-11.2261
▁recruit	-11.2267
▁Baldwin	-11.2267
▁Muslim	-11.2267
▁artificial	-11.2267
▁dignity	-11.2267
▁predecessor	-11.2267
▁stellar	-11.2267
▁Child	-11.2267
▁isolated	-11.2267
▁suspicious	-11.2267
▁distant	-11.2267
▁feed	-11.2269
▁Cap	-11.2274
▁copies	-11.2274
▁Jeremy	-11.2277
▁puppet	-11.2279
▁terrorists	-11.2281
▁represent	-11.2289
ano	-11.2294
▁pants	-11.2294
▁messages	-11.2297
▁Vegas	-11.2298
▁darker	-11.2305
gle	-11.2305
▁Mars	-11.2306
▁blatant	-11.2309
born	-11.2311
▁unfold	-11.2311
ju	-11.2322
▁coffee	-11.2322
▁emphasis	-11.2322
▁innovative	-11.2322
▁thief	-11.2322
▁Hood	-11.2324
▁eighties	-11.2325
▁rec	-11.2326
▁Bette	-11.2327
▁Mas	-11.2328
▁depicts	-11.2329
▁parallel	-11.233
▁trans	-11.2331
thing	-11.2335
▁confess	-11.2335
▁politically	-11.2335
▁Dirty	-11.2338
▁passes	-11.2338
▁Save	-11.2339
Gr	-11.2339
▁legal	-11.234
▁projects	-11.2341
▁exposed	-11.2342
ied	-11.2347
▁wire	-11.2347
▁motives	-11.235
▁WAS	-11.2359
▁damage	-11.2362
nar	-11.2364
▁smooth	-11.2365
maker	-11.2365
cept	-11.2369
▁Myers	-11.2371
▁code	-11.2374
▁frustrating	-11.2378
▁gimmick	-11.2378
▁International	-11.2378
▁poetry	-11.2378
▁Robinson	-11.2381
▁rocket	-11.2382
▁coherent	-11.2386
▁bullet	-11.2388
▁glorious	-11.2388
▁Hamlet	-11.239
▁consistently	-11.239
▁Remember	-11.2391
▁arrested	-11.2391
▁cheating	-11.2395
▁afterwards	-11.2399
▁cliche	-11.24
ean	-11.2401
▁threatening	-11.2406
▁closed	-11.2408
▁fooled	-11.2412
▁Mom	-11.242
▁unintentional	-11.2422
dies	-11.2423
▁Stu	-11.2428
▁aunt	-11.2429
ians	-11.243
▁Say	-11.2432
▁Walt	-11.2437
▁morality	-11.2439
▁Kurt	-11.2441
▁explosion	-11.2444
▁Worth	-11.245
▁inappropriate	-11.2451
uous	-11.2455
AM	-11.2456
▁titled	-11.2461
▁Years	-11.2464
▁Gen	-11.247
▁homeless	-11.2476
▁enormous	-11.2477
▁unfolds	-11.248
▁Ali	-11.2482
▁Cu	-11.2482
▁Lemmon	-11.249
▁aforementioned	-11.249
▁diamond	-11.249
▁wrestling	-11.249
▁milk	-11.249
▁Garfield	-11.249
▁Leonard	-11.2493
going	-11.2497
▁Except	-11.25
ching	-11.2501
▁dinosaurs	-11.2502
▁Shaw	-11.251
▁shelf	-11.2512
▁crimes	-11.2512
▁folk	-11.2513
eat	-11.2515
▁package	-11.2515
▁bone	-11.2515
▁alter	-11.2516
▁wonders	-11.2527
▁Shi	-11.2529
▁Sen	-11.253
▁vivid	-11.2534
▁honesty	-11.2538
▁agreed	-11.2539
funny	-11.2544
▁nervous	-11.2546
▁Spike	-11.2546
▁primarily	-11.2546
▁Certainly	-11.2546
come	-11.2547
▁blew	-11.2547
▁Randy	-11.2547
fall	-11.255
▁Cool	-11.2551
▁civil	-11.2559
▁interact	-11.2564
▁el	-11.2568
▁wow	-11.2573
▁snakes	-11.2573
ace	-11.2575
▁Justin	-11.2578
▁Kat	-11.2581
wer	-11.2582
▁transform	-11.2585
▁inspire	-11.2587
▁displayed	-11.2589
▁SPOILER	-11.2596
Richard	-11.2603
comprehensible	-11.2603
▁Shirley	-11.2603
▁intimate	-11.2603
▁Price	-11.2604
▁Elvis	-11.2604
▁objective	-11.2604
▁venture	-11.2604
▁gradually	-11.2605
▁MTV	-11.2605
▁downhill	-11.2606
▁Eve	-11.2608
▁subtlety	-11.2608
▁immensely	-11.261
▁35	-11.261
▁satisfied	-11.2614
atch	-11.2615
▁conversations	-11.2615
▁Troma	-11.2615
nne	-11.2617
▁Honestly	-11.2619
PS	-11.2623
stage	-11.2624
ouch	-11.263
▁organ	-11.263
▁Boys	-11.2631
▁decisions	-11.2646
▁Bud	-11.2647
▁programme	-11.2651
nda	-11.2653
▁agents	-11.2655
▁screams	-11.2656
▁Carrie	-11.2657
ala	-11.2659
▁equipment	-11.266
▁sleaze	-11.266
▁debate	-11.266
Black	-11.2661
▁Dutch	-11.2662
▁planned	-11.2662
▁regardless	-11.2663
▁earn	-11.2667
Title	-11.2668
▁Gal	-11.2673
▁clip	-11.2678
▁poetic	-11.2683
▁fest	-11.2683
▁classes	-11.2689
▁ease	-11.2689
▁collect	-11.2689
▁cheek	-11.2693
RO	-11.2694
▁Par	-11.2699
▁jaw	-11.27
▁Mari	-11.2707
▁imagined	-11.2712
▁Ste	-11.2712
▁enemies	-11.2718
▁solution	-11.2718
▁schlock	-11.2718
▁southern	-11.2718
ola	-11.2718
▁mi	-11.2721
▁secretary	-11.2721
▁formulaic	-11.2723
▁reduced	-11.2724
white	-11.2725
awful	-11.2728
ook	-11.2729
▁doomed	-11.2729
Com	-11.273
▁aid	-11.273
pass	-11.2739
▁ruins	-11.2744
▁Sex	-11.2745
▁covers	-11.2746
▁prisoners	-11.2748
▁aging	-11.275
▁widow	-11.275
▁RE	-11.2752
▁yell	-11.2756
▁CH	-11.2763
▁consistent	-11.2764
▁masterful	-11.2766
▁Cagney	-11.2776
▁grotesque	-11.2776
▁rendition	-11.2776
▁invisible	-11.2776
▁props	-11.2776
▁Ty	-11.2777
uaid	-11.2777
▁philosophical	-11.2779
eb	-11.2779
▁tag	-11.278
▁Meg	-11.2784
▁Keith	-11.2786
▁Han	-11.2792
▁principal	-11.2794
▁smaller	-11.2794
▁overrated	-11.2794
▁Macy	-11.2798
oe	-11.2801
▁ne	-11.2805
esque	-11.2806
▁progress	-11.2807
▁ME	-11.2809
▁trained	-11.2811
▁auto	-11.2812
▁describes	-11.2814
vert	-11.2814
hot	-11.2816
▁tracks	-11.2817
▁adequate	-11.2821
▁instant	-11.2821
then	-11.2821
▁models	-11.2822
▁rob	-11.2827
▁contest	-11.2833
yr	-11.2833
▁compliment	-11.2834
▁quarter	-11.2834
▁wrapped	-11.2834
▁Godfather	-11.2835
▁trace	-11.2835
▁Lucas	-11.2836
Look	-11.2837
▁REAL	-11.2838
▁prepare	-11.2838
▁Kay	-11.284
▁labor	-11.284
▁3.	-11.284
▁Live	-11.2841
▁bra	-11.2843
▁Short	-11.2846
▁noted	-11.2848
▁Line	-11.2852
▁Song	-11.2858
▁Plot	-11.2859
▁alike	-11.2869
▁Nicole	-11.2873
▁Cold	-11.2874
▁goof	-11.2876
any	-11.2877
used	-11.2877
▁Las	-11.2883
▁Ran	-11.2884
▁Fr	-11.2886
▁Bri	-11.2886
"...	-11.289
▁Crawford	-11.2892
▁creativity	-11.2892
▁reunion	-11.2892
▁ears	-11.2892
▁2004	-11.2893
▁chaos	-11.2893
▁gear	-11.2893
Thank	-11.2894
lor	-11.2895
▁strikes	-11.2898
El	-11.2903
▁cheated	-11.2906
▁solely	-11.2908
▁movements	-11.291
▁Mystery	-11.2911
▁dynamic	-11.2913
▁official	-11.2915
▁Pie	-11.2917
▁wig	-11.2925
▁rocks	-11.2928
▁mock	-11.293
▁desired	-11.2931
rus	-11.2935
▁bite	-11.2938
▁burning	-11.2938
▁Rating	-11.2946
▁loads	-11.2946
▁Sound	-11.2948
▁adorable	-11.2951
▁pattern	-11.2951
name	-11.2951
▁Huston	-11.2951
▁Bruno	-11.2952
▁Edgar	-11.2952
▁Buster	-11.2952
gal	-11.2958
▁Human	-11.2962
handed	-11.2962
▁Made	-11.2963
rin	-11.2964
▁thankfully	-11.2965
▁Sheen	-11.2966
▁Princess	-11.2967
OT	-11.2968
▁switch	-11.2968
▁brains	-11.297
pon	-11.2971
▁dozens	-11.2972
▁Alfred	-11.2974
▁DE	-11.2981
▁arc	-11.2982
▁Four	-11.2984
▁Dee	-11.2991
▁tripe	-11.2995
▁signs	-11.2997
uni	-11.2997
▁inform	-11.2998
▁mate	-11.3
SPOILER	-11.3007
mme	-11.3007
▁rights	-11.3008
ctor	-11.3008
▁mode	-11.3009
▁Florida	-11.301
▁Jordan	-11.301
▁NOTHING	-11.301
▁horrifying	-11.301
▁imitation	-11.301
▁scarecrow	-11.301
▁stilted	-11.301
▁primary	-11.3011
▁embarrassment	-11.3011
▁Southern	-11.3011
nk	-11.3012
▁composer	-11.3012
Great	-11.3012
▁sticks	-11.3013
▁Josh	-11.3013
▁similarities	-11.3014
▁progresses	-11.3014
▁robbery	-11.3015
▁Frankie	-11.3017
▁illness	-11.3017
woman	-11.3019
▁TH	-11.3019
▁DON	-11.302
▁cats	-11.3023
▁dose	-11.3025
▁prize	-11.3025
▁gut	-11.3025
▁Lang	-11.3029
▁officers	-11.3035
▁mile	-11.3037
▁climb	-11.3048
▁thumbs	-11.3052
▁Lion	-11.3052
▁parties	-11.3058
ches	-11.3058
▁kicked	-11.3061
▁shadows	-11.3062
▁Liz	-11.3065
▁subplots	-11.3066
▁Bronson	-11.307
▁elegant	-11.307
▁plausible	-11.307
▁illogical	-11.307
▁pitiful	-11.307
ken	-11.307
▁nevertheless	-11.307
▁Silver	-11.307
▁romp	-11.307
▁roof	-11.3071
▁Days	-11.3072
▁constructed	-11.3077
▁considerable	-11.3078
?),	-11.3078
▁laughably	-11.3078
▁dimensional	-11.3079
▁exploit	-11.3081
▁Road	-11.3082
▁mentioning	-11.3084
▁slave	-11.3094
▁5.	-11.3096
▁fed	-11.3098
▁bla	-11.3101
aking	-11.3107
ification	-11.3109
▁survived	-11.3116
▁divorce	-11.3119
▁frequent	-11.3124
▁Deep	-11.3125
▁spoke	-11.3125
▁hence	-11.3128
big	-11.3128
▁Bourne	-11.313
▁Felix	-11.313
world	-11.313
▁tele	-11.313
▁ski	-11.3132
special	-11.3133
▁chased	-11.3134
▁Gold	-11.3137
▁Iraq	-11.3137
▁Corman	-11.3141
su	-11.3142
▁uneven	-11.3142
▁gangsters	-11.3142
▁discuss	-11.3144
▁catches	-11.3146
▁introduces	-11.3146
▁Boo	-11.3147
▁Em	-11.3151
▁psychic	-11.3154
▁jewel	-11.3158
▁factory	-11.3159
▁Year	-11.3164
each	-11.3164
▁Nu	-11.3165
▁shortly	-11.317
eff	-11.3172
▁label	-11.3177
▁inane	-11.3177
▁twin	-11.3179
▁suited	-11.3179
▁ingredients	-11.3179
rise	-11.318
▁trend	-11.3182
▁Aside	-11.3185
▁careers	-11.3185
▁sketch	-11.3186
▁tool	-11.3189
zu	-11.3189
▁nostalgia	-11.319
▁riveting	-11.319
▁fought	-11.319
▁absent	-11.319
▁vocal	-11.319
▁Girls	-11.3191
▁workers	-11.3191
▁Hitch	-11.3191
▁Bugs	-11.3193
Night	-11.3193
▁Amy	-11.3194
▁Ruth	-11.3195
▁suitable	-11.3198
del	-11.3202
▁Sullivan	-11.3203
▁SEE	-11.3207
▁accompanied	-11.3207
vor	-11.3208
gging	-11.3209
▁explored	-11.3211
Can	-11.3213
▁hood	-11.3215
▁Raj	-11.3215
wo	-11.3221
▁addict	-11.3231
IE	-11.3231
regarding	-11.3234
▁pursue	-11.3234
▁affect	-11.3237
beat	-11.3238
▁secrets	-11.3239
ific	-11.324
▁trashy	-11.3247
iz	-11.3248
▁developing	-11.3249
▁Aussie	-11.3251
▁smell	-11.3251
▁sappy	-11.3251
▁Mormon	-11.3251
▁Miles	-11.3252
▁operation	-11.3252
▁fade	-11.3254
▁Rita	-11.3254
▁cake	-11.3256
▁Terry	-11.3257
▁Dawn	-11.326
▁Skip	-11.326
▁Sar	-11.3261
▁convincingly	-11.3263
using	-11.3266
stars	-11.3267
▁bi	-11.3268
▁potentially	-11.3268
▁dust	-11.327
▁Given	-11.3271
▁hilariously	-11.3275
▁brutally	-11.3292
▁pretending	-11.3293
▁cook	-11.3295
▁contribute	-11.3295
nia	-11.3297
ppy	-11.3298
▁indicate	-11.3299
▁Sur	-11.3301
▁define	-11.3304
▁education	-11.3308
tte	-11.3308
▁Through	-11.331
▁kidnap	-11.331
▁incompetent	-11.3311
▁challenging	-11.3311
▁nostalgic	-11.3311
▁spiral	-11.3311
▁advertising	-11.3311
▁Tyler	-11.3312
▁leap	-11.3312
▁LOT	-11.3313
▁bonus	-11.3313
▁egg	-11.3313
▁composed	-11.3314
▁Manhattan	-11.3316
▁glasses	-11.3316
urg	-11.332
▁recommendation	-11.3321
aries	-11.3323
▁Worst	-11.3326
▁earned	-11.333
lli	-11.3338
▁relation	-11.3343
▁avoided	-11.3347
▁ape	-11.3348
▁scratch	-11.3351
▁puzzle	-11.3357
oid	-11.3361
▁contained	-11.3363
▁pig	-11.3365
▁wished	-11.3366
▁guessed	-11.3372
▁beneath	-11.3373
▁underlying	-11.3373
▁fluff	-11.3374
▁Garbo	-11.3374
Please	-11.3378
Other	-11.3378
vid	-11.3381
▁Gore	-11.3383
▁Radio	-11.3385
▁topless	-11.3394
ening	-11.3395
▁tad	-11.3398
▁Tro	-11.3398
fan	-11.3401
▁Yo	-11.3404
Love	-11.3404
▁snake	-11.3406
ient	-11.341
▁nail	-11.3411
▁Granted	-11.3413
▁replace	-11.3421
▁financial	-11.3421
▁Newman	-11.3427
lip	-11.343
▁Doug	-11.3432
▁thru	-11.3432
▁Griffith	-11.3435
▁cinematographer	-11.3435
▁yesterday	-11.3435
▁inferior	-11.3435
▁monologue	-11.3435
▁Nicholson	-11.3435
▁Half	-11.3436
mann	-11.3436
▁vein	-11.3437
▁Wing	-11.3437
▁Wonderful	-11.3444
both	-11.3444
▁pirate	-11.3446
▁hearts	-11.3446
▁Children	-11.3446
▁Sad	-11.3451
▁borrowed	-11.3454
mat	-11.3459
▁tourist	-11.346
▁occasion	-11.3464
kill	-11.3466
▁Times	-11.348
rely	-11.3482
▁awhile	-11.3482
ying	-11.3489
▁address	-11.3489
oul	-11.3497
▁understated	-11.3497
▁undoubtedly	-11.3497
▁Leigh	-11.3498
▁bride	-11.3499
▁fanatic	-11.3499
▁dating	-11.3501
▁confrontation	-11.3501
▁sand	-11.3501
Brazil	-11.3501
versus	-11.3502
script	-11.3502
era	-11.3502
▁Bible	-11.3504
▁coat	-11.3508
based	-11.351
▁pause	-11.3511
";	-11.3511
▁nightmares	-11.3512
▁tales	-11.3513
▁disappeared	-11.3513
▁Eye	-11.3515
▁wound	-11.3515
▁purchased	-11.3517
▁Based	-11.3517
▁heat	-11.3523
▁State	-11.3525
▁Under	-11.3525
▁Gus	-11.3535
▁rage	-11.3535
▁Doo	-11.3535
▁refer	-11.3537
▁useful	-11.3546
▁odds	-11.3547
OM	-11.355
yer	-11.3554
ern	-11.3558
▁campaign	-11.3559
▁crucial	-11.3559
▁despair	-11.3559
▁responsibility	-11.3559
▁Martha	-11.3559
▁wore	-11.356
▁Karloff	-11.356
▁spring	-11.356
▁tick	-11.3561
▁Perry	-11.3561
▁comics	-11.3562
piece	-11.3564
▁mag	-11.3565
▁aim	-11.3566
▁Luc	-11.3567
▁warmth	-11.3567
▁Mason	-11.3567
ident	-11.3569
▁chicken	-11.3569
▁monk	-11.357
▁Sw	-11.3571
▁Ah	-11.3572
▁Davies	-11.3572
▁Leo	-11.3573
je	-11.3577
ubb	-11.3577
▁Final	-11.3579
▁oddly	-11.358
power	-11.358
ense	-11.3582
▁Adams	-11.3583
▁Judge	-11.3586
▁Waters	-11.3586
▁relations	-11.359
pu	-11.3594
▁Tan	-11.3595
▁remained	-11.3601
▁handed	-11.3606
rap	-11.3609
▁rolled	-11.3611
▁notes	-11.3611
▁bullets	-11.3612
▁Sara	-11.3613
TS	-11.3613
▁ver	-11.3621
▁appreciation	-11.3622
▁Absolutely	-11.3622
▁GOOD	-11.3622
▁Harvey	-11.3622
▁dreary	-11.3622
▁taught	-11.3622
▁unsettling	-11.3623
rel	-11.3623
▁waited	-11.3625
▁scripts	-11.3626
Hey	-11.3628
▁suggested	-11.3633
▁Cut	-11.3635
▁Shame	-11.3636
load	-11.3636
▁Cam	-11.3637
▁Enjoy	-11.3638
▁*****	-11.3638
▁alcoholic	-11.3638
▁7.	-11.3639
▁bears	-11.3645
▁Code	-11.3645
▁drawing	-11.3654
ado	-11.3659
▁nomination	-11.3661
gor	-11.3662
goers	-11.3667
▁dish	-11.3677
▁Hills	-11.3678
▁stare	-11.3682
▁Sheriff	-11.3685
▁Turkish	-11.3685
▁swimming	-11.3685
▁Legend	-11.3685
▁rude	-11.3686
▁Theater	-11.3686
▁disappear	-11.3686
▁corruption	-11.3687
▁senseless	-11.3688
▁sincere	-11.3688
▁eaten	-11.369
Peter	-11.3695
▁mouse	-11.3699
▁channels	-11.37
▁blond	-11.3701
▁fa	-11.3706
▁1)	-11.3707
▁AL	-11.3708
▁Greg	-11.371
▁subjects	-11.3712
Th	-11.3712
▁Lil	-11.3713
▁groups	-11.3717
▁staring	-11.3718
▁Str	-11.372
▁Scarlett	-11.3721
▁painted	-11.3722
utter	-11.3725
▁scrap	-11.3727
▁flee	-11.3728
▁Leon	-11.3729
▁Phillip	-11.3729
-19	-11.3732
▁eager	-11.3737
▁coast	-11.3737
▁Actor	-11.3739
▁Count	-11.3748
▁Blockbuster	-11.3749
▁Carradine	-11.3749
▁capturing	-11.3749
▁communicate	-11.3749
▁irrelevant	-11.3749
▁crawl	-11.3749
▁tiresome	-11.3749
▁Hammer	-11.3749
▁specifically	-11.3751
▁Cassavetes	-11.3753
▁Ring	-11.3755
▁seeks	-11.3755
▁retain	-11.3755
▁passable	-11.3757
▁Major	-11.3758
▁Ward	-11.3763
Du	-11.3767
▁prisoner	-11.3768
▁trees	-11.3769
▁arrived	-11.377
▁lowest	-11.3772
▁edit	-11.3772
▁wander	-11.3773
▁attend	-11.3774
▁Bat	-11.3776
▁Scream	-11.3777
will	-11.3786
ttle	-11.3796
▁concentrate	-11.3797
▁wealth	-11.3803
▁custom	-11.3811
▁Century	-11.3813
▁minimum	-11.3813
▁statue	-11.3813
▁Watson	-11.3813
▁Bullock	-11.3813
▁obtain	-11.3813
▁ignorant	-11.3814
▁NYC	-11.3815
▁flies	-11.3816
▁menace	-11.3817
▁priceless	-11.3818
▁mankind	-11.3819
▁Christie	-11.3819
▁deliberately	-11.382
▁forty	-11.3821
▁Game	-11.3821
▁Women	-11.3822
▁Nightmare	-11.383
Ben	-11.3834
ima	-11.3838
ked	-11.3845
▁cancer	-11.3847
▁stark	-11.3848
▁char	-11.385
▁alas	-11.3853
ION	-11.3853
▁farmer	-11.3854
▁adapt	-11.3858
▁mill	-11.3861
▁sentiment	-11.3867
-13	-11.3867
master	-11.3869
▁Carr	-11.3869
▁pays	-11.3871
acy	-11.3874
▁rifle	-11.3878
▁square	-11.3878
▁comparing	-11.3878
▁Jeffrey	-11.3878
▁contrary	-11.3878
▁seventies	-11.3878
▁Hartley	-11.3878
▁wheel	-11.3879
▁possibilities	-11.388
LD	-11.3884
▁roommate	-11.3892
▁careful	-11.3894
▁centre	-11.3895
▁Beyond	-11.3896
ional	-11.3898
▁des	-11.3904
▁Cast	-11.3906
▁correctly	-11.3914
▁Fat	-11.3921
▁threaten	-11.3922
▁enhance	-11.3926
▁focusing	-11.393
▁amounts	-11.3931
▁proceeds	-11.3933
▁outfit	-11.3934
▁global	-11.3943
▁swallow	-11.3943
▁volume	-11.3943
▁dentist	-11.3943
▁Middle	-11.3943
▁Marshall	-11.3943
▁miniseries	-11.3943
▁stinks	-11.3945
▁partly	-11.3945
Ju	-11.3946
▁directs	-11.3946
▁Characters	-11.3947
▁conservative	-11.3948
zer	-11.395
House	-11.3951
▁motivations	-11.3952
▁Fortunately	-11.3956
▁Castle	-11.3957
▁clone	-11.3958
arch	-11.3962
▁redeem	-11.3968
▁Bor	-11.3969
▁conceived	-11.397
▁opinions	-11.397
▁Cook	-11.3974
▁exit	-11.3974
▁introduce	-11.3975
rit	-11.3977
▁lock	-11.3979
faced	-11.398
▁accomplish	-11.399
elect	-11.3991
actors	-11.3993
bli	-11.3995
ria	-11.3999
▁puppets	-11.4
▁Nolan	-11.4005
▁ch	-11.4006
▁promote	-11.4007
cket	-11.4007
▁contribution	-11.4008
▁judging	-11.4008
▁phony	-11.4008
▁Hay	-11.4008
▁angst	-11.4008
▁1999	-11.4008
▁bumbling	-11.4008
▁Harold	-11.4009
▁Romero	-11.4009
▁addiction	-11.401
▁passage	-11.4013
Though	-11.4017
▁Usually	-11.4019
▁valuable	-11.4019
Two	-11.4019
▁biker	-11.4022
▁bur	-11.4023
▁Nobody	-11.4023
ann	-11.4027
kar	-11.403
▁Sun	-11.4032
▁nun	-11.4034
▁deny	-11.4036
TE	-11.4038
▁Stevens	-11.4044
itch	-11.4045
take	-11.4047
rack	-11.4051
▁possess	-11.4052
▁satisfy	-11.4052
▁Cop	-11.4052
▁wishing	-11.4057
▁disguise	-11.4057
▁Close	-11.4058
▁checked	-11.4069
east	-11.407
pped	-11.4071
▁exquisite	-11.4074
▁pursuit	-11.4074
▁flood	-11.4074
▁banned	-11.4074
▁Spock	-11.4074
▁hammer	-11.4075
▁Forget	-11.4075
▁foolish	-11.4076
ograph	-11.4076
▁Niro	-11.4077
zen	-11.4077
▁dim	-11.4078
▁hints	-11.4078
▁2/10	-11.4079
▁futuristic	-11.4079
probably	-11.4083
▁Amazing	-11.4084
▁secondary	-11.4087
▁floating	-11.4087
▁wounded	-11.4092
▁yelling	-11.4099
▁gifted	-11.41
▁compete	-11.4103
aki	-11.4104
▁intend	-11.4104
ONE	-11.4105
▁doors	-11.4105
▁drops	-11.4114
ologist	-11.4116
▁/>***	-11.4119
▁dinosaur	-11.4125
zo	-11.4129
▁dirt	-11.413
God	-11.4131
▁Woo	-11.4132
▁Dance	-11.4133
rac	-11.4134
▁access	-11.414
▁delicate	-11.414
▁desperation	-11.414
▁equivalent	-11.414
▁humble	-11.414
▁Francisco	-11.4141
▁buildings	-11.4144
▁teaches	-11.4146
▁Annie	-11.4147
▁cue	-11.4147
wife	-11.4148
▁winter	-11.4148
Chris	-11.4149
▁Charlotte	-11.4149
▁faster	-11.4153
uth	-11.4157
▁vaguely	-11.4157
▁nod	-11.4158
▁Claude	-11.416
▁beliefs	-11.416
▁Marine	-11.4162
▁Mill	-11.4164
INE	-11.4164
fight	-11.4165
▁lord	-11.4168
▁understandable	-11.4173
ffer	-11.4175
HO	-11.4176
▁combine	-11.4176
iled	-11.4176
▁Bon	-11.4178
▁catchy	-11.419
actor	-11.4193
TA	-11.4195
▁survivors	-11.4196
▁executive	-11.4197
▁historically	-11.4199
mie	-11.42
rich	-11.42
▁mountains	-11.4206
▁Project	-11.4207
▁WATCH	-11.4207
▁mundane	-11.4207
▁patience	-11.4207
▁ritual	-11.4207
ROM	-11.4207
Pro	-11.4207
▁pride	-11.4207
▁stale	-11.4207
▁selection	-11.4209
▁betrayal	-11.4209
▁safety	-11.4209
▁blowing	-11.4213
▁alongside	-11.4213
▁poke	-11.4215
foot	-11.4216
Perhaps	-11.4216
▁weakest	-11.4216
▁Eventually	-11.4217
▁Spirit	-11.422
▁wandering	-11.4229
▁pour	-11.4231
▁Us	-11.4234
▁expressed	-11.4235
avi	-11.4238
ANT	-11.424
▁Bay	-11.425
▁rum	-11.4251
▁Mag	-11.4251
▁buffs	-11.4253
▁musician	-11.4253
uri	-11.4254
▁joined	-11.4254
cop	-11.4254
His	-11.4257
▁expose	-11.4258
▁CG	-11.4258
▁casual	-11.4261
▁astonishing	-11.4261
▁guests	-11.4261
▁moody	-11.4264
mount	-11.4269
▁lasted	-11.4272
▁ranch	-11.4272
▁port	-11.4272
▁Belushi	-11.4274
▁NBC	-11.4274
▁remarkably	-11.4274
▁revolutionary	-11.4275
▁improvement	-11.4275
▁modest	-11.4277
▁butcher	-11.4278
▁authority	-11.4279
▁Kids	-11.4281
▁popularity	-11.4283
Avoid	-11.4284
word	-11.4285
▁Throughout	-11.4288
▁represented	-11.4294
▁Gere	-11.4295
err	-11.4295
(..	-11.4301
▁helpless	-11.4302
▁jo	-11.4305
▁grip	-11.4309
▁superhero	-11.431
Sha	-11.4312
▁lips	-11.4319
▁Sin	-11.4319
Or	-11.4322
headed	-11.4323
▁Pictures	-11.4324
▁abandon	-11.4325
▁marketing	-11.4331
▁Hart	-11.4331
▁method	-11.4333
90	-11.4335
nor	-11.4335
▁thugs	-11.4337
▁ensues	-11.4337
ager	-11.4339
▁dread	-11.4341
▁Several	-11.4341
▁behaviour	-11.4341
▁travesty	-11.4341
▁vomit	-11.4341
▁adolescent	-11.4341
▁BIG	-11.4341
▁glance	-11.4341
▁Machine	-11.4342
▁2007	-11.4342
▁rotten	-11.4342
▁hokey	-11.4342
▁heartbreaking	-11.4342
▁plight	-11.4343
▁Foxx	-11.4344
▁tv	-11.4345
▁educational	-11.4346
▁mistress	-11.4346
▁3000	-11.4346
▁conditions	-11.4347
▁Scooby	-11.4348
▁dragon	-11.4357
▁Pete	-11.4359
▁Better	-11.4361
▁lion	-11.4363
▁overacting	-11.4363
▁exceptionally	-11.437
▁gather	-11.4371
▁greatness	-11.4372
AP	-11.4379
▁yard	-11.4383
▁Bow	-11.4388
▁associate	-11.4393
▁Julian	-11.4395
▁Gone	-11.4396
▁Boris	-11.4402
▁musicians	-11.4407
ished	-11.4407
▁sons	-11.4408
▁patients	-11.4409
▁Thompson	-11.4409
▁compelled	-11.4409
▁ethnic	-11.4409
▁transcend	-11.4409
▁vulnerable	-11.4409
▁Aaron	-11.4409
▁warrant	-11.4409
▁Either	-11.4418
provoking	-11.442
George	-11.442
free	-11.4427
Bad	-11.444
▁treats	-11.4441
▁boxing	-11.4446
▁claimed	-11.445
▁forms	-11.4452
▁catching	-11.4455
▁lately	-11.4455
▁drift	-11.4457
tress	-11.4459
▁launch	-11.4461
kov	-11.4464
▁dancers	-11.4469
▁disgrace	-11.4473
▁filler	-11.4476
▁Wa	-11.4476
▁remove	-11.4476
▁Sarandon	-11.4478
▁Widmark	-11.4478
▁arrival	-11.4478
▁wacky	-11.4478
▁Barrymore	-11.4478
▁punishment	-11.4478
▁Warren	-11.448
▁tin	-11.4484
ille	-11.4487
▁granted	-11.4487
yo	-11.4487
▁Terrible	-11.4489
ALL	-11.4489
▁cliff	-11.449
again	-11.4491
forward	-11.4491
▁depicting	-11.4493
.......	-11.4495
ique	-11.4496
▁Ren	-11.4498
▁cleverly	-11.4499
stein	-11.4502
▁scope	-11.4511
rock	-11.4515
▁complaining	-11.4517
▁limit	-11.4523
▁boom	-11.4526
CE	-11.4529
▁unreal	-11.453
▁Woods	-11.4531
mber	-11.4531
▁dud	-11.4532
▁Rent	-11.4539
vie	-11.454
▁Head	-11.4546
▁Central	-11.4547
▁definition	-11.4547
▁exploration	-11.4547
▁mysteries	-11.4547
▁defense	-11.4547
▁ONLY	-11.4547
▁Ritter	-11.4547
Snake	-11.4547
▁agenda	-11.4548
▁Pet	-11.4553
▁'70	-11.4553
11	-11.4554
▁attitudes	-11.4554
▁tunes	-11.4554
▁trivial	-11.4556
▁spa	-11.4556
▁Ian	-11.4557
rig	-11.4562
▁drove	-11.4562
▁citizens	-11.4575
mother	-11.4582
▁pushing	-11.4586
▁severe	-11.4587
▁wi	-11.4589
ua	-11.4589
nate	-11.459
▁wildly	-11.4596
▁adopt	-11.46
▁Mind	-11.4604
ters	-11.4604
▁premiere	-11.4604
▁Yu	-11.4616
▁integrity	-11.4616
▁muddled	-11.4616
▁uplifting	-11.4616
▁protest	-11.4616
▁Light	-11.4616
▁narrow	-11.4616
▁airplane	-11.4617
▁Neither	-11.4617
▁uncover	-11.4618
▁hostage	-11.462
▁Arab	-11.462
▁snap	-11.4626
ral	-11.4626
▁presumably	-11.4626
production	-11.4629
▁Writer	-11.4634
▁cream	-11.4634
sch	-11.4636
▁Battle	-11.4637
▁closest	-11.4638
▁rave	-11.4638
▁Got	-11.464
▁map	-11.4641
▁Spacey	-11.4642
▁engineer	-11.4654
▁steam	-11.4655
uel	-11.4659
vel	-11.466
lies	-11.466
▁promised	-11.4661
Cha	-11.4668
▁suspend	-11.4669
▁TR	-11.4669
▁arrest	-11.4669
suit	-11.4674
▁generations	-11.4675
40	-11.4676
▁greed	-11.4676
▁tasteless	-11.468
▁composition	-11.4686
▁paranoia	-11.4686
▁Conrad	-11.4686
▁Dylan	-11.4686
▁loneliness	-11.4686
▁assigned	-11.4686
▁mutant	-11.4687
▁edition	-11.4688
▁sailor	-11.4689
▁messed	-11.4692
▁Scottish	-11.4692
▁Joel	-11.4693
▁'80	-11.4693
▁Char	-11.4696
▁questionable	-11.4699
▁Marion	-11.4699
complete	-11.47
▁washed	-11.47
▁sink	-11.4701
Very	-11.4701
ata	-11.4702
▁realizing	-11.4702
▁Bull	-11.4702
Once	-11.4704
dam	-11.4718
Ja	-11.4722
▁disliked	-11.4723
▁challenged	-11.4725
▁Bela	-11.4725
▁corn	-11.473
▁respected	-11.4731
▁stink	-11.4735
isation	-11.4736
▁swing	-11.4736
▁Hawk	-11.4739
▁HE	-11.4741
RY	-11.4742
▁conduct	-11.4752
▁acid	-11.4754
▁Five	-11.4756
▁abusive	-11.4757
▁nonsensical	-11.4757
▁savage	-11.4757
▁region	-11.4757
▁facing	-11.4757
▁darn	-11.4757
▁misery	-11.4757
▁unhappy	-11.4758
▁fascinated	-11.476
▁property	-11.476
rat	-11.4762
▁tap	-11.4765
▁discovering	-11.4767
▁Heston	-11.4767
▁Face	-11.4769
another	-11.4774
far	-11.4775
having	-11.4777
tier	-11.4779
▁matches	-11.4779
▁maniac	-11.4783
▁Party	-11.4785
▁agrees	-11.4787
eur	-11.4788
une	-11.4796
hol	-11.48
▁tonight	-11.4802
▁bully	-11.4804
lier	-11.4809
▁ob	-11.4814
gun	-11.4816
▁bow	-11.4821
▁Spring	-11.4821
▁3-	-11.4822
▁emerge	-11.4823
▁Eli	-11.4825
▁psychopath	-11.4826
▁August	-11.4827
▁Maggie	-11.4827
▁embrace	-11.4827
▁manipulative	-11.4827
▁register	-11.4827
▁simplicity	-11.4827
▁smiling	-11.4827
▁vengeance	-11.4827
▁soccer	-11.4828
▁1995	-11.4828
▁fruit	-11.4828
▁Ham	-11.4828
▁unaware	-11.4828
▁saga	-11.4828
▁Barney	-11.4828
▁vital	-11.4829
▁June	-11.483
▁Marty	-11.4832
▁aka	-11.4833
ELL	-11.4833
▁Spain	-11.4834
▁complexity	-11.4835
▁cha	-11.4835
▁kicking	-11.4836
Naked	-11.4836
▁chances	-11.4839
12	-11.4845
aker	-11.4847
▁Truly	-11.4848
▁Put	-11.4849
▁Willie	-11.485
pel	-11.485
NO	-11.4851
anti	-11.4853
▁sensational	-11.4855
▁Ku	-11.4855
▁rope	-11.4859
▁closet	-11.4859
▁Virginia	-11.486
▁raises	-11.4862
▁recover	-11.4862
▁cheat	-11.4863
IVE	-11.4863
▁Ash	-11.4864
met	-11.4865
▁MO	-11.4869
▁reward	-11.487
▁Were	-11.4875
▁PR	-11.4876
▁fashioned	-11.488
▁complaints	-11.4881
▁Jews	-11.4882
▁shout	-11.4883
▁heap	-11.4884
▁ties	-11.4891
▁relatives	-11.4893
▁newly	-11.4895
▁Craven	-11.4899
▁aesthetic	-11.4899
▁dilemma	-11.4899
▁silliness	-11.4899
▁sublime	-11.4899
▁rehash	-11.4899
▁counterpart	-11.4899
▁steel	-11.4899
▁flair	-11.4899
▁construction	-11.49
▁Samuel	-11.49
▁Egyptian	-11.49
evil	-11.49
▁household	-11.49
▁deaf	-11.4902
▁secretly	-11.4905
▁Timothy	-11.4905
▁Meryl	-11.4905
▁flag	-11.4906
▁lands	-11.4912
▁golf	-11.4912
William	-11.4913
▁firm	-11.4915
▁stake	-11.4921
▁UN	-11.4931
▁Pearl	-11.4932
▁Sub	-11.4934
▁nuts	-11.4934
▁faults	-11.4936
▁trailers	-11.4939
▁tackle	-11.4942
▁hates	-11.4942
▁backgrounds	-11.4943
▁distinct	-11.4955
▁Gre	-11.4959
talk	-11.4964
ele	-11.4968
▁descend	-11.497
▁IMDB	-11.4971
▁astounding	-11.4971
▁enthusiasm	-11.4971
▁rhythm	-11.4971
▁rational	-11.4971
▁civilization	-11.4971
▁lackluster	-11.4971
▁flip	-11.4972
▁straightforward	-11.4972
▁belt	-11.4972
▁poem	-11.4972
zar	-11.4974
▁Wong	-11.4974
▁assassination	-11.4975
▁hopeless	-11.4977
▁Bam	-11.4979
▁MY	-11.498
▁methods	-11.4982
▁stumbled	-11.4983
▁Simply	-11.4984
▁Colin	-11.4984
ole	-11.4988
▁/>1.	-11.4989
▁worn	-11.499
▁sucker	-11.4991
urb	-11.4993
▁wolf	-11.4995
▁landing	-11.4996
▁Rings	-11.4999
ME	-11.5006
▁demand	-11.5008
▁widely	-11.5015
▁Wait	-11.5016
▁realised	-11.5019
▁Rome	-11.5019
▁realm	-11.502
ban	-11.5021
▁transport	-11.5027
▁boil	-11.5029
0,000	-11.503
▁brat	-11.5033
▁jumped	-11.5034
▁centers	-11.5034
........	-11.5034
▁Crystal	-11.5043
▁Miyazaki	-11.5043
▁corporate	-11.5043
▁deranged	-11.5043
▁massacre	-11.5043
▁museum	-11.5043
▁nephew	-11.5043
▁rabbit	-11.5043
▁Kyle	-11.5043
▁biography	-11.5043
▁edgy	-11.5044
▁unpredictable	-11.5044
▁knee	-11.5044
▁yellow	-11.5044
▁Series	-11.5044
▁ensure	-11.5044
▁simultaneously	-11.5045
▁conviction	-11.5046
▁Berlin	-11.5047
▁Simpson	-11.5048
▁SC	-11.5048
▁Somehow	-11.5048
▁Patricia	-11.505
▁limits	-11.505
▁polished	-11.5051
▁dresses	-11.5051
▁Fear	-11.5051
▁experimental	-11.5058
▁Donna	-11.5061
▁Hero	-11.5062
Last	-11.5063
Li	-11.5063
▁clock	-11.5063
▁Recommended	-11.5064
Joe	-11.5066
Big	-11.5069
▁behold	-11.5072
▁institution	-11.5073
▁scores	-11.5074
▁Bean	-11.5074
▁online	-11.5077
ien	-11.5082
▁designer	-11.5084
▁tail	-11.5092
ered	-11.5095
▁Sy	-11.5097
▁cab	-11.5099
▁garden	-11.5104
▁genres	-11.5105
▁Corn	-11.5106
▁require	-11.5106
▁Hy	-11.5107
▁Sim	-11.5109
▁intro	-11.5114
▁League	-11.5116
▁profanity	-11.5116
▁squad	-11.5116
▁session	-11.5116
▁visible	-11.5116
▁Brooklyn	-11.5116
▁Therefore	-11.5116
▁Bernard	-11.5117
▁Diana	-11.5118
▁WW	-11.5118
▁Ellen	-11.5118
▁representation	-11.512
▁vice	-11.512
▁grainy	-11.5121
▁retired	-11.5122
▁kit	-11.513
original	-11.513
▁Funny	-11.5131
particularly	-11.5132
▁BO	-11.5133
Hu	-11.5133
▁resources	-11.5138
▁dialogues	-11.5141
▁refused	-11.5142
add	-11.5145
▁Rich	-11.5147
mates	-11.5149
▁bands	-11.515
▁haunt	-11.5151
▁23	-11.5152
▁99	-11.516
▁armed	-11.5161
▁abused	-11.5162
▁Ly	-11.5163
▁Ger	-11.5167
▁cage	-11.5167
burg	-11.5168
▁writes	-11.5169
▁Gor	-11.5171
ami	-11.5172
▁overlook	-11.5178
▁capital	-11.518
▁Mat	-11.5181
▁reaching	-11.5184
▁maid	-11.5188
▁depression	-11.519
▁literature	-11.519
▁unravel	-11.519
▁wretched	-11.519
▁mayhem	-11.519
▁bedroom	-11.5191
▁mobster	-11.5191
▁Carmen	-11.5191
▁wax	-11.5192
▁profit	-11.5194
▁hippie	-11.5197
▁Harrison	-11.5198
▁invited	-11.5199
character	-11.5199
▁Natalie	-11.52
▁pleasing	-11.5201
rou	-11.5201
▁intentionally	-11.5201
▁Predator	-11.5202
ood	-11.5204
▁standout	-11.5205
▁Opera	-11.5207
▁showdown	-11.5215
▁Ce	-11.5219
▁performs	-11.5225
▁promises	-11.5226
och	-11.5228
IDE	-11.5233
body	-11.5234
▁roller	-11.5237
fo	-11.5243
▁robots	-11.5244
▁Thus	-11.5247
▁mute	-11.5255
dding	-11.5257
▁quotes	-11.5258
▁cope	-11.5258
▁Read	-11.5261
have	-11.5261
▁flower	-11.5263
▁accuracy	-11.5264
▁celebrity	-11.5264
▁miracle	-11.5264
▁stunned	-11.5264
▁Robbins	-11.5264
▁distribution	-11.5264
▁cigarette	-11.5264
▁Venice	-11.5264
▁mummy	-11.5264
tech	-11.5265
▁2003	-11.5265
▁heartwarming	-11.5265
▁History	-11.5266
▁loop	-11.5266
▁chess	-11.5266
▁banal	-11.5266
▁Hughes	-11.5267
FF	-11.5268
▁misleading	-11.5269
oli	-11.527
▁Kenneth	-11.5271
BO	-11.5271
▁harmless	-11.5272
▁witnesses	-11.5272
These	-11.5273
own	-11.5273
▁photos	-11.5273
▁WAY	-11.5274
▁biased	-11.5275
▁comedians	-11.5276
▁gender	-11.5278
▁surfing	-11.5279
father	-11.528
▁Friends	-11.5284
▁sounding	-11.5289
▁advanced	-11.5293
bound	-11.5295
ram	-11.5296
▁occasions	-11.5297
▁Angels	-11.5297
▁Fall	-11.5298
gram	-11.5301
▁Andre	-11.5302
oy	-11.5306
notch	-11.5308
late	-11.5315
▁chew	-11.5317
wait	-11.5318
▁Marc	-11.5318
▁posted	-11.5318
▁Until	-11.5322
▁outline	-11.5323
▁universal	-11.5326
▁1980'	-11.5328
▁similarly	-11.5329
▁diver	-11.5333
▁Wil	-11.5333
▁vulgar	-11.5337
▁attribute	-11.5339
▁fantasies	-11.5339
▁stroke	-11.5339
▁variation	-11.5339
▁Bogart	-11.5339
▁Rooney	-11.5339
▁interior	-11.5339
▁dysfunctional	-11.5339
▁alarm	-11.5339
▁2002	-11.534
still	-11.534
▁zoom	-11.5343
▁objects	-11.5343
▁Office	-11.5344
▁orders	-11.5348
miss	-11.535
▁2"	-11.5351
▁buck	-11.5352
▁remarks	-11.5357
▁heading	-11.5362
▁businessman	-11.5362
▁Bridges	-11.5365
Rating	-11.5365
▁disappears	-11.5366
▁lean	-11.5375
alo	-11.5377
▁Lone	-11.5387
▁accurately	-11.5391
▁flu	-11.5392
▁hurts	-11.5392
raw	-11.5393
▁SH	-11.5394
ggy	-11.5395
Her	-11.5396
▁worker	-11.5397
▁ordered	-11.5398
▁Bach	-11.5412
▁1972	-11.5414
▁Amazon	-11.5414
▁ambiguous	-11.5414
▁insipid	-11.5414
▁participate	-11.5414
▁schedule	-11.5414
▁demise	-11.5414
▁accompany	-11.5414
▁asylum	-11.5414
▁Farrell	-11.5414
▁Raymond	-11.5414
▁sixties	-11.5415
▁feat	-11.5415
▁cities	-11.5416
▁tacky	-11.542
▁Carey	-11.5421
▁choreographed	-11.5422
▁Ernest	-11.5425
length	-11.5432
▁Juliet	-11.5433
▁neighbors	-11.5435
▁bitch	-11.5445
trip	-11.5446
▁chicks	-11.5447
▁fist	-11.545
cam	-11.5456
▁resemble	-11.5458
cco	-11.5458
mir	-11.5459
▁clueless	-11.5459
▁Loy	-11.5467
taking	-11.5469
note	-11.547
ctic	-11.547
▁convict	-11.547
two	-11.5475
▁Au	-11.5479
▁Austin	-11.549
▁inconsistent	-11.549
▁supply	-11.549
▁wisdom	-11.549
▁Astaire	-11.549
▁April	-11.549
▁Note	-11.549
▁dreck	-11.549
▁Monkey	-11.549
▁blackmail	-11.5491
▁Valley	-11.5491
gate	-11.5492
▁Lily	-11.5493
▁tar	-11.5494
▁exposure	-11.5495
▁stranded	-11.5496
sex	-11.5496
▁origin	-11.5498
▁noises	-11.5499
▁fox	-11.5499
▁fingers	-11.55
▁Hopefully	-11.5501
aid	-11.5502
▁bowl	-11.5518
▁disco	-11.5523
▁tax	-11.5524
▁assure	-11.5527
▁Reeves	-11.5528
▁Shot	-11.5529
▁SF	-11.553
17	-11.554
▁Har	-11.554
▁liners	-11.5541
▁PA	-11.5547
▁slash	-11.5548
▁generate	-11.555
15	-11.5551
▁shift	-11.5559
▁Cuba	-11.5562
▁Fair	-11.5562
▁Voight	-11.5566
▁circus	-11.5566
▁companies	-11.5566
▁suspicion	-11.5566
▁niece	-11.5566
▁motorcycle	-11.5566
▁worm	-11.5566
▁radical	-11.5566
▁DEAD	-11.5566
▁Kapoor	-11.5566
▁drill	-11.5566
▁Hank	-11.5567
▁Fisher	-11.5571
▁Horrible	-11.5573
▁unlikeable	-11.5574
pop	-11.5574
▁masses	-11.5574
▁conflicts	-11.5578
think	-11.5578
eller	-11.5579
▁Furthermore	-11.5579
▁evolution	-11.5583
Okay	-11.5585
Hollywood	-11.5585
▁drum	-11.5586
pet	-11.5587
▁Outer	-11.5589
▁shouting	-11.5589
▁Studios	-11.5592
▁rings	-11.5598
▁sometime	-11.5603
▁HA	-11.5603
▁relax	-11.5604
▁lengthy	-11.5608
▁murdering	-11.5608
▁moronic	-11.5609
▁Sant	-11.561
)...	-11.561
▁Stiller	-11.5616
▁Free	-11.5619
▁gate	-11.5622
▁rooms	-11.5624
▁hearted	-11.5626
Ne	-11.5636
▁internal	-11.5636
▁swim	-11.5642
▁Miike	-11.5643
▁WHY	-11.5643
▁activities	-11.5643
▁client	-11.5643
▁empathy	-11.5643
▁shoddy	-11.5643
▁tunnel	-11.5643
▁despise	-11.5643
▁primitive	-11.5643
▁faint	-11.5643
Jo	-11.5643
▁muscle	-11.5643
▁ignorance	-11.5643
▁Kitty	-11.5643
▁Stuart	-11.5643
▁Beatty	-11.5644
▁Dickens	-11.5644
▁---	-11.5645
▁reverse	-11.5645
▁Professor	-11.5648
▁pray	-11.5649
▁hyper	-11.5649
▁pops	-11.565
▁Hyde	-11.5651
*****	-11.5652
16	-11.5653
▁Molly	-11.5654
▁greedy	-11.5654
nation	-11.5656
▁Nicholas	-11.5656
▁severely	-11.5657
▁Terror	-11.5657
scape	-11.5658
▁employ	-11.5661
▁Wish	-11.5662
▁/>2.	-11.5663
▁Ang	-11.5664
▁Hans	-11.5667
directed	-11.5671
▁dropping	-11.5671
▁lifted	-11.5672
▁setup	-11.5672
MM	-11.5674
▁wing	-11.5675
while	-11.5676
▁rear	-11.5677
▁Gay	-11.5678
▁resulting	-11.5682
▁Lowe	-11.5686
ova	-11.5694
astic	-11.5698
▁repeating	-11.5699
▁domestic	-11.57
▁Gate	-11.5705
▁cannibal	-11.5707
▁Cary	-11.5708
ika	-11.5712
eye	-11.5715
▁offend	-11.5715
▁profession	-11.5716
▁exhibit	-11.5718
▁MUST	-11.572
▁spectacle	-11.572
▁valid	-11.572
▁weather	-11.572
▁Naturally	-11.572
▁choppy	-11.572
▁debt	-11.572
▁ingenious	-11.5721
▁static	-11.5721
▁investigating	-11.5721
▁VI	-11.5721
▁letters	-11.5721
▁troops	-11.5722
▁Drake	-11.5723
▁Thu	-11.5724
▁Whit	-11.5724
▁Cher	-11.5724
aud	-11.5728
kind	-11.5729
▁hungry	-11.5731
▁Shadow	-11.5731
▁invented	-11.5732
▁Lauren	-11.5734
▁amused	-11.5735
▁pie	-11.5736
▁Lin	-11.5739
▁supported	-11.5739
▁circle	-11.574
▁tower	-11.5741
gri	-11.5741
▁defined	-11.5741
▁excel	-11.5745
▁sung	-11.5746
Ed	-11.5748
▁coup	-11.5752
▁rot	-11.5758
EST	-11.5759
▁prey	-11.5766
bbing	-11.5768
cum	-11.577
▁eats	-11.5771
5/10	-11.5776
▁inhabit	-11.5782
▁bike	-11.5784
TO	-11.5784
▁Main	-11.5787
▁Gil	-11.5789
▁losers	-11.5791
▁compassion	-11.5798
▁decline	-11.5798
▁describing	-11.5798
▁judgment	-11.5798
▁prequel	-11.5798
▁surviving	-11.5798
▁Dalton	-11.5798
▁insanity	-11.5798
▁fluid	-11.5799
▁distress	-11.5799
▁Jar	-11.5802
▁Earl	-11.5804
ello	-11.5807
got	-11.5812
▁Original	-11.5813
▁Shu	-11.5813
▁positively	-11.5814
▁insightful	-11.5814
▁mins	-11.5817
Death	-11.582
▁rose	-11.582
hum	-11.5821
▁Action	-11.5821
▁Third	-11.5824
logical	-11.5824
▁Step	-11.5825
▁generated	-11.5826
▁differently	-11.5826
▁tastes	-11.5827
your	-11.5829
fish	-11.5831
▁policeman	-11.5834
▁disregard	-11.5838
Che	-11.5847
▁explores	-11.5849
▁march	-11.585
wash	-11.585
▁Soul	-11.5855
dan	-11.5855
▁gap	-11.5856
▁desires	-11.5859
GE	-11.586
▁adore	-11.5863
▁exceptions	-11.5866
▁pose	-11.5873
▁Er	-11.5876
▁1983	-11.5877
▁Colonel	-11.5877
▁crocodile	-11.5877
▁derivative	-11.5877
▁preposterous	-11.5877
uentin	-11.5877
▁triangle	-11.5877
▁conscience	-11.5877
▁Hindi	-11.5878
▁barrel	-11.5878
▁underwater	-11.5879
▁Lifetime	-11.5881
▁patch	-11.5881
▁Dunne	-11.5881
▁purposes	-11.5886
ira	-11.5886
▁CA	-11.5887
▁worship	-11.5887
▁Should	-11.5889
▁passengers	-11.5889
▁visiting	-11.5891
▁strongest	-11.5893
mond	-11.5893
▁Brain	-11.5893
▁foil	-11.5894
▁chi	-11.5894
▁Keep	-11.5894
▁Try	-11.5894
▁suggestion	-11.5894
▁gu	-11.5896
▁Everybody	-11.5897
eng	-11.5899
▁ju	-11.5901
▁Fast	-11.5904
▁Bel	-11.5905
boo	-11.5906
▁lively	-11.5907
▁loaded	-11.5908
▁Bart	-11.5909
▁Din	-11.5919
ANG	-11.5926
ali	-11.5929
▁randomly	-11.5939
▁hooker	-11.594
▁Surely	-11.5943
Any	-11.5944
▁tease	-11.5946
ore	-11.5947
▁Carlos	-11.5949
▁Latin	-11.5949
▁solo	-11.5949
▁Antonio	-11.5954
▁Brosnan	-11.5957
▁unlikable	-11.5957
▁SNL	-11.5957
▁audition	-11.5957
▁demented	-11.5957
▁collapse	-11.5957
▁Goldberg	-11.5957
▁nightclub	-11.5957
▁Barker	-11.5957
▁sickening	-11.5957
▁loyalty	-11.5958
▁hoot	-11.5959
▁Beast	-11.5961
▁preachy	-11.5962
▁Salman	-11.5962
▁Pin	-11.5964
END	-11.5964
▁ga	-11.5965
▁Luckily	-11.5965
▁Inspector	-11.5965
▁difficulties	-11.5967
lent	-11.597
▁Vera	-11.597
▁va	-11.5973
▁According	-11.5973
▁Wilder	-11.5975
child	-11.598
▁caricature	-11.5982
▁sits	-11.5983
▁receives	-11.5984
▁Turn	-11.5992
▁cameras	-11.5994
▁counts	-11.5995
rab	-11.5998
▁Rex	-11.6
▁spine	-11.6002
▁interactions	-11.6005
▁pat	-11.6005
▁Lind	-11.6006
▁Jill	-11.6015
▁slaughter	-11.602
▁experiments	-11.6023
high	-11.6026
▁geek	-11.6027
▁active	-11.6027
ington	-11.6033
Only	-11.6034
▁Hugh	-11.6036
ously	-11.6036
▁Bettie	-11.6037
▁Olivier	-11.6037
▁Temple	-11.6037
▁arguably	-11.6037
▁elevator	-11.6037
▁hackneyed	-11.6037
▁inaccurate	-11.6037
▁morbid	-11.6037
▁wardrobe	-11.6037
▁Czech	-11.6037
▁chronic	-11.6037
▁entitled	-11.6037
▁sugar	-11.6037
▁referred	-11.6037
▁Kathy	-11.6037
ller	-11.6038
▁distraction	-11.604
▁whip	-11.6042
▁Town	-11.6043
▁fuel	-11.6045
▁Jesse	-11.6045
▁Network	-11.6045
▁completed	-11.6045
▁Stupid	-11.6047
▁WHAT	-11.6048
▁chooses	-11.6048
▁Must	-11.6049
turn	-11.6049
▁Ry	-11.6051
▁Sanders	-11.6052
▁overlong	-11.6053
▁del	-11.6056
▁outfits	-11.6059
modern	-11.606
▁visits	-11.606
twist	-11.606
▁Roth	-11.6062
▁warrior	-11.6064
▁explode	-11.6067
▁net	-11.607
held	-11.6072
▁grind	-11.6073
▁appropriately	-11.6074
▁symbol	-11.6075
▁drinks	-11.6083
▁namely	-11.6089
1)	-11.6097
▁shell	-11.6098
force	-11.6099
▁seduce	-11.6101
▁tire	-11.6101
▁symbolic	-11.6104
iling	-11.6105
▁lifeless	-11.6109
▁sums	-11.611
▁Crazy	-11.6117
▁Gibson	-11.6117
▁WORST	-11.6117
▁elephant	-11.6117
▁explosive	-11.6117
▁fascination	-11.6117
▁surgery	-11.6117
▁elevate	-11.6117
▁giggle	-11.6117
here	-11.6118
▁wagon	-11.6118
▁apply	-11.6118
fun	-11.6121
▁Travolta	-11.6122
▁Judy	-11.6124
▁precisely	-11.6125
▁crashes	-11.6127
▁merits	-11.6127
▁pill	-11.6131
▁hopelessly	-11.6133
rest	-11.6137
▁incorrect	-11.6137
atory	-11.6137
fetched	-11.6141
▁Fool	-11.6144
ye	-11.6145
▁SA	-11.6147
▁creator	-11.6147
▁Ranger	-11.6147
▁pound	-11.6151
▁stab	-11.6152
▁rates	-11.6154
▁Eyes	-11.6157
▁princess	-11.6159
▁twins	-11.6161
Many	-11.6168
Best	-11.6169
odd	-11.6179
ifying	-11.6182
▁crook	-11.6182
▁dismiss	-11.6182
really	-11.6186
▁signed	-11.6186
omb	-11.6186
▁lip	-11.6189
Na	-11.6194
▁instrument	-11.6195
▁sympathize	-11.6196
▁trauma	-11.6198
bber	-11.6198
▁Columbia	-11.6198
▁Cruise	-11.6198
▁Montgomery	-11.6198
▁Paxton	-11.6198
▁Scotland	-11.6198
▁analysis	-11.6198
▁giallo	-11.6198
▁grief	-11.6198
▁imaginable	-11.6198
▁literary	-11.6198
▁opportunities	-11.6198
▁recycled	-11.6198
▁skull	-11.6198
▁Velvet	-11.6198
▁yawn	-11.6199
▁keen	-11.6199
▁steer	-11.6199
▁mud	-11.6199
▁Russo	-11.62
▁compensate	-11.6201
▁Jacob	-11.6202
▁controlled	-11.6203
▁Uwe	-11.6204
Par	-11.6205
▁Errol	-11.6207
▁restored	-11.6209
▁Believe	-11.6209
▁Production	-11.6209
▁Conan	-11.6211
ire	-11.6212
oey	-11.6217
▁adopted	-11.6218
▁OUT	-11.6219
▁Robot	-11.6221
▁Phillips	-11.6224
Dark	-11.6226
▁invest	-11.6226
▁Danes	-11.6228
▁Muppet	-11.623
game	-11.623
mark	-11.6231
▁viewings	-11.6236
▁Mis	-11.6238
▁lure	-11.624
▁10,	-11.6247
▁landscapes	-11.6256
▁Sand	-11.6258
▁Break	-11.6262
▁guards	-11.6264
War	-11.6265
▁Dor	-11.6267
▁chills	-11.6267
▁translate	-11.6272
omi	-11.6272
▁historic	-11.6276
lyn	-11.6278
▁seldom	-11.628
▁crisp	-11.628
▁obligatory	-11.628
▁steady	-11.628
▁exposition	-11.6281
▁Mitchum	-11.6281
▁species	-11.6281
▁Walsh	-11.6281
▁couch	-11.6282
▁bread	-11.6282
▁Damon	-11.6283
▁shared	-11.6283
▁wholly	-11.6288
▁Flash	-11.6288
▁acclaimed	-11.6289
▁delve	-11.629
▁Needless	-11.6291
▁located	-11.6292
▁Richardson	-11.6292
▁Brilliant	-11.6294
▁firmly	-11.6295
Dan	-11.6296
▁Gray	-11.6298
60	-11.6304
etti	-11.6304
normal	-11.6306
little	-11.6307
IS	-11.6308
▁startling	-11.631
▁pages	-11.631
▁von	-11.6312
feel	-11.6313
▁additional	-11.6314
▁Anton	-11.6317
▁Plan	-11.6318
▁ARE	-11.6322
▁breed	-11.6322
▁Bear	-11.6326
▁quietly	-11.6329
ugg	-11.6333
▁tracking	-11.634
▁voted	-11.6344
non	-11.6345
▁Off	-11.6346
▁OR	-11.6346
▁abrupt	-11.6351
▁adaptations	-11.6353
live	-11.6355
leg	-11.6355
▁marked	-11.6358
▁Simpsons	-11.6358
▁9/11	-11.6363
▁Costello	-11.6363
▁Wagner	-11.6363
▁extensive	-11.6363
▁fifty	-11.6363
▁intricate	-11.6363
▁conquer	-11.6363
▁Busey	-11.6363
▁verbal	-11.6363
▁eternal	-11.6363
▁Kumar	-11.6364
LOW	-11.6365
▁invention	-11.6366
▁corpses	-11.6369
▁STAR	-11.637
▁shootout	-11.6372
▁destroying	-11.6373
▁shoulder	-11.6373
een	-11.6373
▁Akshay	-11.6373
▁spirits	-11.6374
▁Edge	-11.6377
▁poker	-11.6382
cul	-11.6385
▁consideration	-11.6385
▁balls	-11.6386
▁Sleep	-11.6387
▁demanding	-11.6388
perhaps	-11.6389
Sam	-11.6391
▁screwed	-11.6393
▁SU	-11.6395
cross	-11.6396
fly	-11.6399
▁Vo	-11.6399
▁Alec	-11.6401
Did	-11.6405
olo	-11.6407
ept	-11.641
▁credited	-11.6413
▁Beth	-11.6415
▁Ye	-11.6423
cious	-11.6425
▁22	-11.6426
▁designs	-11.6427
▁challenges	-11.6434
▁Les	-11.6434
cru	-11.6436
uv	-11.644
Se	-11.644
▁sending	-11.6441
▁doctors	-11.6441
▁demonstrates	-11.6443
▁painter	-11.6443
tric	-11.6445
▁Dawson	-11.6446
▁FILM	-11.6446
▁Snipes	-11.6446
▁deceased	-11.6446
▁devastating	-11.6446
▁exploring	-11.6446
▁industrial	-11.6446
▁significance	-11.6446
▁unexplained	-11.6446
▁newcomer	-11.6447
▁1979	-11.6447
▁Eastern	-11.6447
▁lush	-11.6447
▁click	-11.6447
▁shaking	-11.6447
▁Aunt	-11.6448
▁dismal	-11.6448
▁viewpoint	-11.6449
▁Giant	-11.6449
▁Native	-11.645
▁cruelty	-11.645
▁petty	-11.645
▁dealer	-11.6451
▁Kidman	-11.6452
▁vain	-11.6453
mas	-11.6454
▁Elvira	-11.6455
▁feminist	-11.6456
▁canceled	-11.6457
▁Mask	-11.6458
▁Royal	-11.6459
avier	-11.6467
Life	-11.6473
Dead	-11.6475
▁previews	-11.6477
cool	-11.6481
Red	-11.6485
last	-11.6485
cca	-11.6488
▁sale	-11.6489
▁Winters	-11.6492
▁Bed	-11.6495
▁releases	-11.6496
▁knocked	-11.6501
▁Brother	-11.6502
yet	-11.6502
99	-11.6504
▁virtual	-11.6518
▁mail	-11.6518
esh	-11.6527
▁Clooney	-11.653
▁Debbie	-11.653
▁antagonist	-11.653
▁caliber	-11.653
▁Orleans	-11.653
▁injured	-11.653
▁pioneer	-11.653
▁Claus	-11.6531
://	-11.6531
▁kidnapping	-11.6531
▁shorter	-11.6531
▁widescreen	-11.6532
▁Monty	-11.6533
▁possession	-11.6535
▁Homer	-11.6536
▁Detective	-11.6538
▁admittedly	-11.6538
▁rapist	-11.654
▁plate	-11.6542
▁rejected	-11.6543
!!!!!!	-11.6546
▁crazed	-11.6547
worth	-11.6548
▁Awful	-11.6548
▁transformed	-11.6556
cock	-11.6556
DVD	-11.6558
Frank	-11.6559
▁refuse	-11.656
▁Von	-11.6563
▁prince	-11.6571
▁distract	-11.6573
▁annoy	-11.6576
▁Bottom	-11.658
▁shoulders	-11.6582
▁youngest	-11.6583
vic	-11.6588
▁inability	-11.659
eth	-11.6596
▁assumed	-11.6598
▁confirm	-11.6599
round	-11.6602
▁immediate	-11.6602
▁bones	-11.6604
▁Kerr	-11.6608
ibly	-11.6614
▁Hilton	-11.6615
▁heartfelt	-11.6615
▁hilarity	-11.6615
▁obsessive	-11.6615
▁shaky	-11.6615
▁Simmons	-11.6615
▁Jenny	-11.6616
▁route	-11.6616
▁jock	-11.6616
▁preferred	-11.6617
▁Ginger	-11.6617
▁x	-11.6619
▁limb	-11.662
▁flashes	-11.6622
▁brutality	-11.6622
▁shed	-11.6623
▁phenomenal	-11.6623
▁skits	-11.6627
▁Rupert	-11.6627
Mad	-11.6628
▁Sandy	-11.6628
▁bum	-11.6629
▁rendered	-11.6629
▁Fight	-11.6629
▁stream	-11.663
▁vastly	-11.6636
▁dances	-11.6637
▁Scary	-11.6645
▁Beach	-11.6647
▁opt	-11.6654
▁matched	-11.6656
gel	-11.6656
▁doom	-11.6657
▁motive	-11.6658
▁beard	-11.6659
print	-11.6661
ante	-11.6665
cking	-11.6668
▁regarded	-11.667
▁Demons	-11.6674
▁Charl	-11.6674
▁gi	-11.6682
▁March	-11.6683
genre	-11.6683
▁1930'	-11.6684
▁increase	-11.6684
▁Others	-11.6685
cess	-11.6685
▁abound	-11.6689
say	-11.6693
▁Tell	-11.6695
▁Sydney	-11.6701
▁Toronto	-11.6701
▁Verhoeven	-11.6701
▁provocative	-11.6701
▁Dillon	-11.6701
▁Hopkins	-11.6701
▁candidate	-11.6701
▁glaring	-11.6701
▁Ronald	-11.6701
▁clash	-11.6701
▁resume	-11.6701
▁expense	-11.6701
▁Sellers	-11.6701
▁biopic	-11.6701
▁jarring	-11.6701
▁enlist	-11.6702
uge	-11.6704
▁spit	-11.6706
▁Duck	-11.6708
▁Kline	-11.671
▁Cho	-11.6711
▁respectively	-11.6713
▁weakness	-11.6723
▁/>3.	-11.6727
post	-11.6727
Which	-11.6729
Alien	-11.6729
▁thrilled	-11.6729
perfect	-11.673
▁Sid	-11.6732
▁troubles	-11.6733
▁comm	-11.6735
▁mayor	-11.6735
ement	-11.6739
working	-11.674
▁boxer	-11.6742
▁Jet	-11.6742
ridge	-11.6742
▁lol	-11.6743
unless	-11.6744
▁disgust	-11.6748
▁Grave	-11.675
▁invites	-11.6751
Neill	-11.6753
anna	-11.6754
▁Barr	-11.6754
▁rep	-11.6754
▁bush	-11.6761
htt	-11.6763
▁CAN	-11.6765
dog	-11.6765
mind	-11.6771
moving	-11.6779
pal	-11.6785
▁toys	-11.6785
▁Kind	-11.6785
mad	-11.6785
▁Mal	-11.6787
▁1996	-11.6787
▁Olivia	-11.6787
▁WITH	-11.6787
▁attorney	-11.6787
▁camcorder	-11.6787
▁inexplicably	-11.6787
▁Lambert	-11.6787
▁feast	-11.6788
▁pimp	-11.6788
▁recreate	-11.6788
▁unrelated	-11.6789
▁Laugh	-11.679
▁considerably	-11.6791
▁confidence	-11.6793
▁meal	-11.6794
▁duck	-11.6797
▁Darkness	-11.6797
ulous	-11.6797
▁minded	-11.68
▁glowing	-11.6801
▁bash	-11.6802
▁lens	-11.6804
▁messy	-11.6807
sure	-11.6807
▁Fay	-11.6809
▁panic	-11.6809
▁Stay	-11.6811
Spoiler	-11.6816
writing	-11.6816
▁gems	-11.6822
▁bombs	-11.6825
▁teachers	-11.6826
▁engine	-11.6827
HE	-11.6827
▁NY	-11.6829
▁rising	-11.6832
disc	-11.6834
▁unexpectedly	-11.6835
▁emphasize	-11.6836
glo	-11.684
▁heroin	-11.6844
▁den	-11.6845
wick	-11.685
▁illustrate	-11.6857
lb	-11.6858
▁slim	-11.6864
▁respective	-11.6867
▁studying	-11.6872
aught	-11.6872
▁Mildred	-11.6874
▁Polanski	-11.6874
▁Technicolor	-11.6874
▁immature	-11.6874
▁receiving	-11.6874
▁smack	-11.6874
▁testament	-11.6874
▁lunch	-11.6874
▁identical	-11.6874
▁article	-11.6874
▁1997	-11.6874
▁Thankfully	-11.6874
▁slack	-11.6875
▁Downey	-11.6875
▁zone	-11.6876
▁commitment	-11.6876
▁ripping	-11.6877
▁continually	-11.6877
▁shoe	-11.6877
▁GOD	-11.6878
▁frightened	-11.6879
▁economic	-11.6879
▁Hayes	-11.688
▁stopping	-11.688
▁rapidly	-11.6885
▁scriptwriter	-11.6887
▁complet	-11.6889
▁Edie	-11.6897
▁filmmaking	-11.6897
▁ja	-11.6897
▁stumbles	-11.6897
▁Hum	-11.6905
llen	-11.691
almost	-11.6911
Mart	-11.6912
▁axe	-11.6912
▁stretched	-11.6913
▁Spoilers	-11.6914
loud	-11.6918
▁info	-11.692
Bill	-11.6921
dance	-11.6924
▁tooth	-11.6925
▁neo	-11.6931
▁styles	-11.6933
▁fur	-11.6936
▁topics	-11.6936
Su	-11.6938
▁Less	-11.694
▁Awards	-11.694
lines	-11.6942
▁sustain	-11.6945
▁prominent	-11.6949
▁Pal	-11.6955
uh	-11.6959
▁Abraham	-11.6962
▁Cohen	-11.6962
▁Seymour	-11.6962
▁celebration	-11.6962
▁embark	-11.6962
▁energetic	-11.6962
▁misguided	-11.6962
▁virtue	-11.6962
▁psychology	-11.6962
▁churn	-11.6962
▁Mountain	-11.6962
▁entrance	-11.6962
▁automatically	-11.6962
▁blink	-11.6962
▁subtly	-11.6962
▁Irene	-11.6963
▁befriends	-11.6963
▁Snow	-11.6965
▁Poe	-11.6966
▁moron	-11.6966
▁minus	-11.6967
▁Boyle	-11.6969
▁Alone	-11.6972
▁confident	-11.6973
▁resolved	-11.6976
tar	-11.6978
lib	-11.698
org	-11.6985
▁posters	-11.6988
▁houses	-11.6994
▁Sto	-11.6995
▁HO	-11.6996
pit	-11.6996
▁bug	-11.6997
oooo	-11.6997
▁jet	-11.7001
ule	-11.7007
▁reader	-11.7009
▁surround	-11.7011
▁Field	-11.7013
hur	-11.7014
▁pad	-11.7015
****	-11.7028
▁Pol	-11.7031
lumber	-11.7032
▁reluctant	-11.7037
▁Clo	-11.704
▁photograph	-11.7041
▁fundamental	-11.7045
▁Joey	-11.7049
AG	-11.7049
▁critique	-11.705
▁disastrous	-11.705
▁investigator	-11.705
▁mafia	-11.705
▁peculiar	-11.705
▁perception	-11.705
▁aspiring	-11.705
▁deleted	-11.705
▁twelve	-11.705
▁Storm	-11.705
▁Ollie	-11.705
▁Actress	-11.705
▁pocket	-11.705
▁centered	-11.705
▁gray	-11.7052
▁waitress	-11.7052
hey	-11.7053
▁spout	-11.7054
▁waves	-11.7055
lop	-11.7057
▁Denzel	-11.7059
gna	-11.7059
hic	-11.7061
▁IF	-11.7061
▁Kramer	-11.7062
▁Vince	-11.7062
▁Euro	-11.7064
▁disgusted	-11.7067
along	-11.7069
▁Name	-11.707
▁Spa	-11.7077
has	-11.7078
▁tolerate	-11.7079
▁serving	-11.7081
Having	-11.7083
▁ol	-11.7085
etc	-11.7086
cia	-11.709
much	-11.7094
mill	-11.7097
▁charged	-11.7102
▁ka	-11.7102
▁separated	-11.7102
▁Grim	-11.7112
Sure	-11.7116
▁hung	-11.7124
▁height	-11.713
▁visited	-11.713
var	-11.7131
▁woo	-11.7131
80	-11.7134
▁grabs	-11.7134
▁Egypt	-11.7138
▁Stallone	-11.7139
▁engrossing	-11.7139
▁examination	-11.7139
▁flavor	-11.7139
▁misfortune	-11.7139
▁sarcastic	-11.7139
▁Montana	-11.7139
▁jaded	-11.7139
▁1969	-11.7139
▁shortcomings	-11.7139
▁Dumb	-11.714
▁marries	-11.714
▁disorder	-11.714
▁Beatles	-11.714
▁Bunny	-11.714
▁racing	-11.714
▁tempted	-11.714
▁suburban	-11.7141
▁Logan	-11.7141
▁airport	-11.7142
▁weaknesses	-11.7143
▁Rush	-11.7143
▁partially	-11.7146
▁taped	-11.7146
wall	-11.7147
▁morals	-11.715
ARD	-11.715
▁remade	-11.715
▁affairs	-11.7151
▁Today	-11.7152
▁respectable	-11.7153
chy	-11.7155
▁Ok	-11.7155
uo	-11.7157
Its	-11.7158
ucker	-11.7158
cause	-11.716
blo	-11.7162
ache	-11.7163
▁sincerely	-11.7163
▁helpful	-11.7164
▁....	-11.7164
VER	-11.7166
lane	-11.7166
▁Connor	-11.7169
water	-11.7174
fri	-11.7175
aunt	-11.7184
▁shares	-11.7186
▁mechanical	-11.7188
▁tapes	-11.7188
▁PC	-11.7193
▁revolve	-11.7196
▁Milo	-11.7196
▁roots	-11.7201
▁devices	-11.7203
▁ban	-11.7205
▁melt	-11.7207
▁outlaw	-11.7209
▁acknowledge	-11.7213
▁dominate	-11.7213
▁hum	-11.7216
▁concepts	-11.7216
▁dressing	-11.7224
▁expectation	-11.7224
▁afterward	-11.7228
▁differ	-11.7228
▁orphan	-11.7228
Technically	-11.7229
▁bikini	-11.7229
▁compromise	-11.7229
▁groan	-11.7229
▁neighbour	-11.7229
▁Beverly	-11.7229
▁Shatner	-11.7229
▁sharing	-11.7229
▁basketball	-11.723
▁frantic	-11.723
▁chore	-11.723
▁tramp	-11.723
▁royal	-11.723
▁backwards	-11.723
▁hammy	-11.7231
▁Runner	-11.7231
▁earnest	-11.7231
▁organization	-11.7231
▁Jess	-11.7231
▁authorities	-11.7231
▁acceptance	-11.7232
▁Whoever	-11.7234
▁grateful	-11.7236
▁regime	-11.7236
▁glued	-11.7237
▁ponder	-11.7239
▁witches	-11.724
▁Mid	-11.724
▁filling	-11.7241
▁Christina	-11.7242
▁assured	-11.725
▁Clive	-11.7254
▁guaranteed	-11.7257
open	-11.726
Luc	-11.727
▁entered	-11.7273
state	-11.7278
▁Leno	-11.7279
▁Fer	-11.728
▁avid	-11.7281
ancy	-11.7283
▁vet	-11.7286
mostly	-11.7286
▁al	-11.7288
▁upside	-11.7293
▁2:	-11.7294
▁Ob	-11.7298
▁Lau	-11.7298
▁torment	-11.7304
▁examine	-11.7305
umm	-11.7305
▁boob	-11.731
▁deserted	-11.731
ART	-11.7311
▁Cross	-11.7313
▁AM	-11.7313
▁machines	-11.732
▁legitimate	-11.732
▁AIDS	-11.732
▁Chief	-11.732
▁Novak	-11.732
▁claustrophobic	-11.732
▁communication	-11.732
▁expedition	-11.732
▁exterior	-11.732
▁leather	-11.732
▁submarine	-11.732
▁spree	-11.732
▁vibrant	-11.732
▁gambling	-11.732
▁Haines	-11.732
▁departure	-11.7321
▁informative	-11.7321
▁macho	-11.7321
▁deserving	-11.7321
▁Gerard	-11.7321
▁Work	-11.7321
▁Boston	-11.7322
▁request	-11.7322
▁shopping	-11.7322
▁headache	-11.7323
arian	-11.7323
▁strings	-11.7324
▁raid	-11.7326
IST	-11.7327
▁mall	-11.7328
EAR	-11.7329
▁Werewolf	-11.733
▁Beauty	-11.7331
▁speeches	-11.7332
train	-11.7333
▁Perfect	-11.7333
▁Orson	-11.7334
▁difficulty	-11.7338
iva	-11.7339
▁translated	-11.7342
▁Sweet	-11.7342
▁needless	-11.7345
hack	-11.7347
ground	-11.7348
▁Titanic	-11.735
▁attacking	-11.7351
▁surroundings	-11.7352
fiction	-11.7358
▁Pla	-11.7362
ombies	-11.7362
▁alley	-11.7363
▁Evan	-11.7368
Mon	-11.7372
▁dive	-11.7378
rim	-11.7382
▁observe	-11.7383
▁commenting	-11.7385
Ray	-11.7386
cla	-11.7387
nger	-11.7392
▁para	-11.7393
erb	-11.7395
▁confuse	-11.7396
▁criticize	-11.7397
▁Tur	-11.7397
▁lone	-11.7399
▁Tak	-11.7404
▁yo	-11.7405
▁rises	-11.7406
▁Luis	-11.7411
▁Swayze	-11.7412
▁Cowboy	-11.7412
▁Modesty	-11.7412
▁comprehend	-11.7412
▁provoke	-11.7412
▁ridicule	-11.7412
▁slide	-11.7412
▁Hayworth	-11.7412
▁terrified	-11.7412
▁amusement	-11.7413
▁bucket	-11.7413
▁indication	-11.7413
▁copied	-11.7414
VI	-11.7415
▁illusion	-11.7416
▁Marx	-11.7416
▁bell	-11.7422
▁Box	-11.7424
▁Trust	-11.7425
▁Nights	-11.743
▁someday	-11.7432
▁addicted	-11.7438
UM	-11.7438
▁reported	-11.7441
burn	-11.7449
▁GR	-11.7449
Every	-11.745
fashioned	-11.745
shock	-11.7451
moral	-11.7451
▁Asia	-11.7452
nge	-11.7454
▁reflects	-11.7454
▁Ferr	-11.7454
found	-11.7454
▁Sue	-11.7456
▁incorporate	-11.7456
bly	-11.746
▁smash	-11.7467
▁temp	-11.7479
dar	-11.7484
phone	-11.7486
▁Pink	-11.7492
▁mal	-11.7499
path	-11.7501
▁rub	-11.7502
▁immortal	-11.7503
▁traffic	-11.7504
▁Duvall	-11.7505
▁Savage	-11.7505
▁University	-11.7505
▁anticipation	-11.7505
▁destiny	-11.7505
▁hapless	-11.7505
▁hollow	-11.7505
▁instinct	-11.7505
▁/>4/10	-11.7505
▁Cushing	-11.7505
▁imitate	-11.7505
▁chopped	-11.7505
▁turd	-11.7505
▁spill	-11.7505
▁outing	-11.7506
▁limp	-11.7506
▁Word	-11.7506
▁Piper	-11.7511
▁Stra	-11.7516
▁abruptly	-11.7519
▁vile	-11.752
▁Direction	-11.7523
▁healthy	-11.7524
▁forgiven	-11.7531
▁presenting	-11.7534
imo	-11.7535
Blood	-11.7541
People	-11.7541
▁singers	-11.7541
anne	-11.7542
▁Hot	-11.7543
Bar	-11.7544
Jane	-11.7548
▁bon	-11.7549
▁sooner	-11.7551
▁strangers	-11.7553
▁Ph	-11.7557
thank	-11.7559
▁conventions	-11.7569
▁observation	-11.7571
▁6.	-11.7573
▁strain	-11.7582
takes	-11.7584
▁morally	-11.7586
▁agency	-11.7588
????	-11.7588
▁Liv	-11.7589
▁Psycho	-11.7593
▁marvel	-11.7598
▁1984	-11.7598
▁1993	-11.7598
▁Emperor	-11.7598
▁Ocean	-11.7598
▁definitive	-11.7598
▁privilege	-11.7598
▁seductive	-11.7598
▁unimaginative	-11.7598
▁TCM	-11.7598
▁rambling	-11.7598
▁femme	-11.7598
▁micro	-11.7598
▁wives	-11.7598
▁Saint	-11.7598
▁repulsive	-11.7598
▁neurotic	-11.7599
▁recognizable	-11.7599
▁bulk	-11.7599
▁jacket	-11.7599
▁midnight	-11.7599
▁eventual	-11.7599
▁riddle	-11.76
▁promotion	-11.76
▁grass	-11.76
▁Mul	-11.76
▁Fri	-11.7601
▁Wright	-11.7601
▁spaceship	-11.7602
▁HAVE	-11.7604
▁Exorcist	-11.7604
▁mentality	-11.7605
▁Arm	-11.7606
▁answered	-11.7606
▁Twilight	-11.7607
cky	-11.7607
▁Godzilla	-11.7609
▁punches	-11.761
▁nerves	-11.7611
▁Throw	-11.7613
▁employed	-11.7619
Har	-11.762
▁siblings	-11.7622
▁Daniels	-11.7626
▁Bird	-11.7628
▁Gable	-11.7628
▁discussing	-11.7632
▁billed	-11.7636
▁bugs	-11.7637
▁Def	-11.7642
▁AN	-11.7644
▁asset	-11.7645
▁UP	-11.7649
▁Fans	-11.7649
▁rant	-11.765
▁stumble	-11.7651
▁Post	-11.7653
shoot	-11.7655
▁Gro	-11.7656
▁Fun	-11.7657
track	-11.7657
▁Sco	-11.7659
▁Away	-11.7662
ently	-11.7663
▁owned	-11.7664
▁Pay	-11.767
eating	-11.7675
▁applaud	-11.7675
hara	-11.7682
▁stunningly	-11.7682
▁Karl	-11.7686
▁1939	-11.7692
▁Cassidy	-11.7692
▁lavish	-11.7692
▁mesmerizing	-11.7692
▁opponent	-11.7692
▁rebellious	-11.7692
▁/>7/10	-11.7692
▁Warrior	-11.7692
▁wilderness	-11.7692
▁presume	-11.7692
▁tolerable	-11.7693
▁suspension	-11.7693
▁unsatisfying	-11.7693
▁Wesley	-11.7693
▁Theatre	-11.7693
▁referring	-11.7693
▁crank	-11.7693
▁descent	-11.7693
▁Agent	-11.7693
▁housewife	-11.7695
▁Tower	-11.7697
nice	-11.7698
▁boo	-11.7699
▁Bank	-11.77
▁shred	-11.77
▁file	-11.7703
▁Hour	-11.7707
▁Compare	-11.7707
▁ships	-11.771
▁Carell	-11.7711
▁assuming	-11.7711
▁crossing	-11.7712
▁intentional	-11.7714
▁handling	-11.7715
▁Pop	-11.7716
King	-11.7717
Toole	-11.772
▁Fan	-11.772
ural	-11.772
best	-11.7721
▁Israel	-11.7724
▁enjoys	-11.7724
yard	-11.7725
Col	-11.7725
▁Alive	-11.7725
▁Bride	-11.7726
present	-11.7727
Everything	-11.773
Jean	-11.7732
▁refers	-11.7733
▁reminder	-11.7734
agon	-11.7739
date	-11.774
▁sail	-11.7743
lead	-11.775
▁layers	-11.7751
▁Westerns	-11.7752
▁entering	-11.7752
▁belly	-11.7754
More	-11.7756
▁candle	-11.7757
▁Bru	-11.7757
▁sticking	-11.7764
▁remark	-11.7766
ured	-11.7767
▁betray	-11.7768
atic	-11.7776
▁Spade	-11.7781
▁Gri	-11.7782
▁fortunate	-11.7784
RR	-11.7786
Supporting	-11.7788
▁Armstrong	-11.7788
▁Pfeiffer	-11.7788
▁Pierce	-11.7788
▁September	-11.7788
▁kudos	-11.7788
▁phenomenon	-11.7788
▁unsuspecting	-11.7788
▁fetish	-11.7788
▁cruise	-11.7788
▁1968	-11.7788
▁Bryan	-11.7788
▁Mummy	-11.7788
eek	-11.7788
▁Darwin	-11.7788
▁Palance	-11.7788
▁pulp	-11.7789
▁collective	-11.7789
▁banter	-11.7789
▁unseen	-11.779
▁ballet	-11.779
▁Wedding	-11.7791
▁slot	-11.7795
▁Bla	-11.7795
▁absurdity	-11.7796
▁Producer	-11.7797
▁crop	-11.7801
▁Gang	-11.7805
stick	-11.7806
▁flashy	-11.7808
▁jealousy	-11.7809
▁blatantly	-11.781
▁babe	-11.7811
does	-11.7815
Take	-11.7818
Gi	-11.7819
▁paintings	-11.782
▁cliches	-11.7823
▁lasting	-11.7823
▁admirer	-11.7826
nothing	-11.7829
coat	-11.7832
Will	-11.7835
connect	-11.7836
▁Dame	-11.7839
▁mates	-11.784
▁Trip	-11.784
▁enthusiastic	-11.7843
▁caricatures	-11.7853
▁outright	-11.7854
70	-11.7854
▁dam	-11.7859
▁oldest	-11.7861
▁Terr	-11.7864
lew	-11.7865
▁operate	-11.7866
▁pic	-11.7866
hang	-11.7867
▁specially	-11.7868
def	-11.7868
▁Powers	-11.7869
▁coin	-11.7872
▁cheerful	-11.7873
▁servant	-11.7873
lay	-11.7878
▁Bros	-11.7879
▁emerges	-11.788
▁boasts	-11.788
haha	-11.7881
▁smug	-11.7884
▁Affleck	-11.7884
▁Visconti	-11.7884
▁duration	-11.7884
▁fifties	-11.7884
▁inevitably	-11.7884
▁assignment	-11.7884
▁gorilla	-11.7884
▁qualify	-11.7884
▁aggressive	-11.7884
▁telephone	-11.7884
▁taboo	-11.7884
▁Grinch	-11.7884
▁limitations	-11.7884
▁redneck	-11.7884
▁Revolution	-11.7884
▁Preston	-11.7884
▁1920	-11.7885
▁Custer	-11.7885
▁activity	-11.7885
▁Ethan	-11.7887
gli	-11.7887
▁Erika	-11.7888
▁victory	-11.7889
produced	-11.7889
▁parade	-11.7889
▁masterpieces	-11.7894
▁Christians	-11.7894
▁PLEASE	-11.7895
▁Kiss	-11.7895
early	-11.7895
▁Among	-11.79
sexual	-11.7901
fact	-11.7901
▁rainy	-11.7906
▁enhanced	-11.7908
hold	-11.791
▁rack	-11.7911
▁portrayals	-11.7912
▁Brady	-11.7914
▁demonic	-11.7917
▁101	-11.7918
▁Enter	-11.7919
▁Victorian	-11.7919
people	-11.7924
▁brown	-11.7924
▁boost	-11.7927
playing	-11.7928
▁nails	-11.7929
▁hug	-11.7934
▁natives	-11.7934
▁inherent	-11.7935
▁sitcoms	-11.7936
▁jack	-11.7937
EY	-11.7948
▁Secondly	-11.7957
RS	-11.796
▁Peters	-11.796
▁Looking	-11.7961
▁Side	-11.7963
▁drain	-11.7964
▁rapid	-11.7969
dling	-11.797
▁locale	-11.7973
▁1971	-11.7981
▁Rochester	-11.7981
▁Spencer	-11.7981
▁abstract	-11.7981
▁cemetery	-11.7981
▁continuing	-11.7981
▁fierce	-11.7981
▁frozen	-11.7981
▁underneath	-11.7981
▁spider	-11.7981
destined	-11.7981
▁injustice	-11.7981
▁shining	-11.7981
▁Mencia	-11.7981
▁orange	-11.7981
▁Christine	-11.7984
▁hop	-11.7985
▁Flo	-11.7989
raff	-11.7989
▁relie	-11.799
▁Casey	-11.799
▁Ninja	-11.7991
▁Clearly	-11.7993
▁publicity	-11.7995
▁tossed	-11.7999
▁trials	-11.7999
▁Frankly	-11.8001
thy	-11.8004
▁pushe	-11.8007
▁entirety	-11.8008
▁traits	-11.8008
▁switched	-11.8009
conscious	-11.801
▁woeful	-11.801
98	-11.8011
▁Same	-11.8013
▁Evans	-11.8015
Since	-11.8022
Little	-11.8022
filled	-11.8022
driven	-11.8024
▁psyche	-11.8025
▁sales	-11.8033
▁kissing	-11.8035
heads	-11.8038
▁doc	-11.8041
IES	-11.8045
▁Vic	-11.8045
ility	-11.805
▁Elm	-11.8052
▁spirited	-11.8058
nel	-11.8059
▁evoke	-11.8061
▁error	-11.8062
▁bio	-11.8062
▁conveys	-11.8065
▁chat	-11.8066
▁strict	-11.8066
En	-11.807
mont	-11.807
▁Port	-11.807
ucci	-11.8072
▁insert	-11.8075
▁Holm	-11.8076
rating	-11.8076
▁Dolph	-11.8079
▁Python	-11.8079
▁Ricci	-11.8079
▁Ustinov	-11.8079
▁blunt	-11.8079
▁brooding	-11.8079
▁despicable	-11.8079
▁insomnia	-11.8079
▁insurance	-11.8079
▁substantial	-11.8079
▁transplant	-11.8079
▁Preminger	-11.8079
▁academy	-11.8079
▁babies	-11.8079
▁Paramount	-11.8079
▁Gilbert	-11.8079
▁Bonnie	-11.8079
▁millionaire	-11.8079
▁scariest	-11.8079
▁owners	-11.808
▁Bravo	-11.808
▁whine	-11.808
▁Potter	-11.808
▁breakdown	-11.8082
▁interpret	-11.8083
▁wrestler	-11.8085
▁satirical	-11.8089
▁mono	-11.8089
pun	-11.8089
camp	-11.809
▁survives	-11.809
stor	-11.809
▁Eugene	-11.8091
▁Palma	-11.8091
sci	-11.8092
▁selected	-11.8096
▁sim	-11.8096
▁cookie	-11.8096
laugh	-11.8097
▁regards	-11.8097
▁birds	-11.8097
▁spec	-11.8098
jun	-11.8098
▁convicted	-11.8101
▁huh	-11.8103
▁attended	-11.8105
Rock	-11.8107
roo	-11.8109
▁Louise	-11.8111
▁cents	-11.8115
▁nominations	-11.8116
▁mixing	-11.8119
*1/2	-11.812
indulgent	-11.812
Bottom	-11.812
spoiler	-11.812
Before	-11.8121
winning	-11.8122
culture	-11.8124
rag	-11.8125
▁gained	-11.813
cio	-11.8134
▁delightfully	-11.8136
▁Mun	-11.814
▁kiddie	-11.8142
▁handles	-11.8144
▁Pri	-11.8145
▁Spin	-11.8148
▁framed	-11.8148
Boy	-11.8153
cute	-11.8153
▁pink	-11.8155
▁Dana	-11.8155
▁principle	-11.8162
▁Low	-11.8163
▁breast	-11.8164
▁select	-11.8171
▁breathe	-11.8174
hall	-11.8175
▁accounts	-11.8178
▁1982	-11.8178
▁Empire	-11.8178
▁Hepburn	-11.8178
▁Istanbul	-11.8178
▁MUCH	-11.8178
▁controversy	-11.8178
▁fifth	-11.8178
▁coffin	-11.8178
▁scandal	-11.8178
▁invasion	-11.8178
▁overbearing	-11.8178
▁inhabitants	-11.8178
▁1981	-11.8178
▁McCoy	-11.8178
▁isolation	-11.8178
▁Stefan	-11.8178
▁incest	-11.8178
▁frog	-11.8179
▁abortion	-11.8179
▁diverse	-11.8179
▁pathos	-11.818
▁qua	-11.8181
phe	-11.8182
▁commentator	-11.8182
▁Fur	-11.8184
▁Brenda	-11.8184
bing	-11.8184
road	-11.8186
▁weave	-11.8186
▁Want	-11.8194
▁WE	-11.8196
kel	-11.8197
▁rewarding	-11.8209
▁Lynn	-11.821
▁fatale	-11.821
▁!!!	-11.8214
scene	-11.8214
▁AS	-11.8214
noir	-11.8215
▁linked	-11.8218
▁cycle	-11.822
tley	-11.8222
▁DU	-11.8223
cheek	-11.8223
▁balanced	-11.8228
▁Hur	-11.8229
▁Heck	-11.8231
▁delighted	-11.8232
▁Virgin	-11.8233
▁nu	-11.8251
▁justified	-11.8252
vern	-11.8254
sight	-11.8255
▁Ivan	-11.8257
▁linger	-11.8261
Files	-11.8262
▁nerve	-11.8265
▁females	-11.8268
"!	-11.8274
▁champion	-11.8278
▁rats	-11.8278
▁1973	-11.8278
▁Communist	-11.8278
▁STILL	-11.8278
▁Samantha	-11.8278
▁Streisand	-11.8278
▁bastard	-11.8278
▁contempt	-11.8278
▁hybrid	-11.8278
▁rampage	-11.8278
▁restrained	-11.8278
▁subtext	-11.8278
▁university	-11.8278
▁voodoo	-11.8278
▁Ingrid	-11.8278
▁disabled	-11.8278
▁infected	-11.8278
▁mannerisms	-11.8278
▁Number	-11.8278
▁legacy	-11.8278
▁1988	-11.8278
▁Strong	-11.8278
▁Laurence	-11.8279
▁stray	-11.828
▁Rambo	-11.828
▁Ruby	-11.828
▁CBS	-11.828
pec	-11.8281
▁Bacon	-11.8281
▁underworld	-11.8281
▁thrust	-11.8282
▁Kung	-11.8283
know	-11.8284
▁gentleman	-11.8284
▁artwork	-11.8286
▁Lance	-11.8287
Men	-11.8288
▁Private	-11.829
▁MI	-11.8296
▁cleaning	-11.8297
▁combines	-11.8299
▁connections	-11.8302
rift	-11.8303
▁butler	-11.8303
▁divorced	-11.8309
▁Lam	-11.8312
Cur	-11.8314
break	-11.8315
NC	-11.8317
▁angels	-11.8319
producer	-11.8322
sorry	-11.8323
▁depict	-11.8325
New	-11.8326
iko	-11.8326
escent	-11.8333
▁fulfill	-11.8339
▁Ve	-11.834
empt	-11.834
▁Herman	-11.8341
▁Israeli	-11.8346
▁render	-11.8346
▁confession	-11.8349
eh	-11.8349
▁artsy	-11.835
▁Pam	-11.8351
app	-11.8352
Get	-11.8352
▁claiming	-11.8357
▁fishing	-11.836
▁establish	-11.8363
▁Wonder	-11.8363
▁Kei	-11.8365
▁formed	-11.8366
▁elder	-11.8367
▁peaceful	-11.8368
▁Den	-11.8371
ander	-11.8378
▁Basinger	-11.8379
▁Coppola	-11.8379
▁Paltrow	-11.8379
▁Scrooge	-11.8379
▁WILL	-11.8379
▁bounty	-11.8379
▁ghetto	-11.8379
▁senior	-11.8379
▁swamp	-11.8379
▁/>10/10	-11.8379
▁license	-11.8379
▁ominous	-11.8379
▁Following	-11.8379
▁Reagan	-11.8379
▁Eyre	-11.8379
▁Gregory	-11.8379
▁predator	-11.8379
▁cattle	-11.8379
▁karate	-11.8379
▁dubious	-11.838
▁Madsen	-11.8381
▁proving	-11.8381
▁Kurtz	-11.8381
▁authenticity	-11.8383
▁fence	-11.8384
▁Justice	-11.8385
▁Iran	-11.8385
▁votes	-11.8391
▁Kudos	-11.8394
▁Noah	-11.8394
▁wider	-11.8398
▁brainless	-11.84
▁approaches	-11.8401
check	-11.8402
▁Toy	-11.8402
▁stairs	-11.8402
▁disguised	-11.8404
▁wanders	-11.8409
▁races	-11.841
▁Actors	-11.8416
▁Row	-11.8417
▁computers	-11.8424
▁skit	-11.8424
▁PO	-11.8435
AKE	-11.8438
▁mish	-11.8445
▁weep	-11.8447
▁doubts	-11.845
▁Tam	-11.8452
▁tho	-11.8452
gone	-11.8454
▁cracking	-11.8456
▁planes	-11.8457
itude	-11.8457
▁ok	-11.8459
isha	-11.8463
▁residents	-11.8463
▁Sc	-11.8464
▁evolve	-11.8465
▁factors	-11.8467
izations	-11.8471
▁chip	-11.8471
▁flame	-11.8474
▁Bee	-11.8476
▁Herzog	-11.8481
▁Monroe	-11.8481
▁admirable	-11.8481
▁Bennett	-11.8481
▁reliable	-11.8481
▁studied	-11.8481
▁sensible	-11.8481
▁1978	-11.8481
▁Grudge	-11.8481
▁screwball	-11.8482
▁distributor	-11.8482
▁DID	-11.8482
▁Ashley	-11.8482
▁Lupino	-11.8482
▁Dixon	-11.8482
▁firing	-11.8482
cor	-11.8482
▁bald	-11.8483
▁Mouse	-11.8483
▁funding	-11.8483
▁dates	-11.8483
▁bun	-11.8484
▁homosexuality	-11.8484
▁hides	-11.8485
▁youthful	-11.8485
▁plug	-11.8485
▁Carson	-11.8485
▁Showtime	-11.8486
▁Depardieu	-11.8487
▁Doris	-11.8487
▁horny	-11.8491
actually	-11.8491
▁grin	-11.8493
pho	-11.8494
SON	-11.8494
▁iron	-11.8497
▁YOUR	-11.8498
EM	-11.8499
▁outdoor	-11.8501
▁defie	-11.8502
▁signal	-11.8504
▁3)	-11.8505
>	-11.8507
▁approaching	-11.8513
▁Case	-11.8513
▁realities	-11.8513
Second	-11.8514
▁cooking	-11.8518
▁iconic	-11.8521
iously	-11.8522
before	-11.8527
▁vignettes	-11.8527
▁swearing	-11.8533
Never	-11.8534
hip	-11.8536
▁prim	-11.8537
verse	-11.8539
▁pee	-11.854
without	-11.854
▁Garr	-11.8542
HA	-11.8546
▁Rocky	-11.855
▁Act	-11.855
▁Hack	-11.8553
▁tactics	-11.8563
IV	-11.8565
▁arch	-11.857
▁Stars	-11.857
aire	-11.8571
▁programs	-11.8572
▁pipe	-11.8575
▁bombing	-11.8577
▁scan	-11.8579
lessly	-11.858
▁echo	-11.8582
▁pub	-11.8584
▁DeNiro	-11.8584
▁Faith	-11.8584
▁Together	-11.8584
▁bubble	-11.8584
▁thieves	-11.8584
▁hesitate	-11.8584
▁slug	-11.8584
▁chunk	-11.8584
▁outdated	-11.8584
▁aircraft	-11.8585
▁snuff	-11.8586
▁Malone	-11.8586
▁posing	-11.8586
▁:-)	-11.8586
▁unnatural	-11.8587
▁adaption	-11.8587
▁diner	-11.8588
▁published	-11.8591
gore	-11.8592
▁invade	-11.8593
▁Doc	-11.8596
Come	-11.8597
▁norm	-11.8598
▁Hand	-11.8598
bill	-11.8598
▁Character	-11.8602
▁apt	-11.8604
▁Fine	-11.8605
Hi	-11.8605
front	-11.8606
▁Aliens	-11.8607
▁LE	-11.8608
ois	-11.861
▁July	-11.8615
▁altered	-11.8615
▁informed	-11.8616
▁Mick	-11.8616
▁realization	-11.8618
▁Lionel	-11.8619
title	-11.862
High	-11.8621
▁commits	-11.8623
typical	-11.863
ridden	-11.8631
black	-11.8632
▁beside	-11.8633
▁freaking	-11.8634
quality	-11.8635
Yet	-11.8642
▁endlessly	-11.8643
▁visions	-11.8643
14	-11.8649
▁IV	-11.865
▁Var	-11.8655
▁talkie	-11.8656
▁Sopranos	-11.866
ATE	-11.8662
▁Rule	-11.8667
▁grabbe	-11.8671
▁blues	-11.8671
▁Cry	-11.8675
▁practical	-11.8675
▁Bug	-11.8677
▁Sister	-11.8685
▁orchestra	-11.8685
▁gig	-11.8686
▁prospect	-11.8688
▁caution	-11.8688
▁Diamond	-11.8688
▁lunatic	-11.8688
▁manipulation	-11.8688
▁pedestrian	-11.8688
▁shrink	-11.8688
▁unconventional	-11.8688
▁Dallas	-11.8688
▁unwilling	-11.8688
▁warehouse	-11.8688
▁Afghanistan	-11.8688
▁mercy	-11.8688
▁Collins	-11.8688
▁Rusty	-11.8688
▁1989	-11.8688
▁convenient	-11.8689
▁Melville	-11.8689
▁undercover	-11.869
▁Country	-11.869
▁Diaz	-11.869
smith	-11.869
▁Meyer	-11.869
▁Stella	-11.8691
▁Moreover	-11.8691
▁laser	-11.8693
▁undead	-11.8694
▁ripoff	-11.8694
▁avoiding	-11.8695
▁insect	-11.8696
▁Danish	-11.8696
▁Randolph	-11.8698
▁slimy	-11.87
▁handy	-11.8701
bone	-11.8702
▁Phantom	-11.8704
gon	-11.8705
▁Fried	-11.8708
▁Fuller	-11.8713
▁pursued	-11.8716
▁tremendously	-11.8718
▁Directed	-11.8726
▁scam	-11.8728
▁horn	-11.8728
▁Palm	-11.8728
▁accepting	-11.8729
▁warming	-11.8731
▁Russians	-11.8733
▁morons	-11.8734
adventure	-11.8736
!")	-11.8737
▁stalk	-11.8738
▁seedy	-11.8739
▁prepar	-11.8739
please	-11.874
boat	-11.8742
▁fright	-11.8742
▁indifferent	-11.8747
Ex	-11.875
▁couples	-11.8758
▁!!	-11.8759
▁caper	-11.8762
▁rescued	-11.8764
▁mega	-11.8769
▁playful	-11.8769
▁Kor	-11.8775
▁resolve	-11.8777
▁delicious	-11.8781
▁Muni	-11.8781
▁filth	-11.8784
▁quirk	-11.8784
▁architect	-11.8793
▁Arquette	-11.8794
▁Rourke	-11.8794
▁eternity	-11.8794
▁glamorous	-11.8794
▁overblown	-11.8794
▁paranoid	-11.8794
▁splash	-11.8794
▁incapable	-11.8794
▁motor	-11.8794
▁Always	-11.8794
▁Dominic	-11.8794
▁Gundam	-11.8794
▁approached	-11.8794
▁nauseating	-11.8794
▁studies	-11.8794
▁Polish	-11.8795
▁eleven	-11.8795
▁elite	-11.8795
▁Cannes	-11.8795
oooooo	-11.8795
▁persons	-11.8796
▁Corey	-11.8797
▁spice	-11.8797
▁stores	-11.8797
▁Ebert	-11.8797
▁missile	-11.8797
▁bent	-11.8799
▁fog	-11.8799
▁Gl	-11.8801
▁Interesting	-11.8802
Brien	-11.8805
▁growth	-11.8808
▁realistically	-11.8809
▁Amitabh	-11.8809
▁salt	-11.881
enti	-11.8815
▁chin	-11.882
▁Tale	-11.882
▁surf	-11.8821
▁contributed	-11.8822
▁hunters	-11.8823
▁neatly	-11.8827
▁defeated	-11.8829
ulation	-11.8831
▁plotting	-11.8839
▁lighter	-11.884
zzie	-11.8845
monster	-11.8846
plus	-11.8848
▁affects	-11.8849
witted	-11.8856
shin	-11.8856
lift	-11.8857
MAN	-11.8859
▁Lon	-11.886
▁longest	-11.8861
▁Wo	-11.8867
▁tube	-11.8867
▁longing	-11.8869
▁Tar	-11.8871
▁substitute	-11.8874
▁junkie	-11.8875
▁celebrate	-11.8884
▁east	-11.8886
▁lad	-11.8887
inter	-11.8891
thin	-11.8892
▁Korea	-11.8895
▁immigrant	-11.8899
▁bounce	-11.89
▁inexplicable	-11.89
▁arguing	-11.89
▁corporation	-11.89
▁cyborg	-11.89
▁escaping	-11.89
▁flimsy	-11.89
▁harrowing	-11.89
▁medicine	-11.89
▁relevance	-11.89
▁spaghetti	-11.89
▁existential	-11.89
▁implied	-11.89
▁Company	-11.89
▁meandering	-11.89
▁filter	-11.89
▁Cobb	-11.89
▁Domino	-11.89
▁Everett	-11.89
▁anxious	-11.89
▁pornography	-11.89
▁perverse	-11.89
▁Joyce	-11.8901
▁garage	-11.8901
▁mortal	-11.8901
▁anchor	-11.8901
▁underwear	-11.8902
▁WWE	-11.8902
▁possesses	-11.8906
▁stardom	-11.8906
▁advertised	-11.8908
▁uncut	-11.8909
▁drab	-11.891
▁minority	-11.8911
▁inspirational	-11.8912
▁mum	-11.8912
▁Job	-11.8913
Chi	-11.8913
▁Gloria	-11.8914
▁coma	-11.8916
▁anytime	-11.8918
▁Reg	-11.8918
▁mentions	-11.8919
▁remakes	-11.8919
▁Fran	-11.8921
▁Juan	-11.8921
▁masks	-11.8921
▁cheaply	-11.8921
▁tech	-11.8924
mori	-11.8928
▁threatened	-11.8928
▁sync	-11.893
▁commander	-11.8935
▁dumped	-11.8935
DO	-11.8938
▁aboard	-11.8947
Three	-11.895
▁safely	-11.8951
▁wisely	-11.8959
▁taxi	-11.8961
▁Gein	-11.8961
▁regularly	-11.8967
▁goals	-11.8973
▁95	-11.8978
▁Nan	-11.8979
▁crashing	-11.8982
▁judged	-11.8983
▁ye	-11.8984
▁reform	-11.899
▁idol	-11.8991
▁(!)	-11.8994
▁token	-11.8997
▁Toni	-11.8998
sub	-11.9002
lapse	-11.9005
▁coupled	-11.9006
breaking	-11.9007
▁TIME	-11.9007
▁1986	-11.9007
▁Adrian	-11.9007
▁Dietrich	-11.9007
▁Nolte	-11.9007
▁inclusion	-11.9007
▁medieval	-11.9007
▁wheelchair	-11.9007
esquire	-11.9007
▁Kansas	-11.9007
▁Worse	-11.9007
▁spouse	-11.9007
▁Granger	-11.9008
▁1994	-11.9008
▁Martian	-11.9008
▁tendency	-11.9008
▁pump	-11.9009
▁Alvin	-11.901
▁minister	-11.901
▁Left	-11.9011
▁Portman	-11.9011
▁unsure	-11.9011
▁pairing	-11.9014
▁cor	-11.9016
▁Episode	-11.9016
▁satisfaction	-11.9017
▁Moe	-11.9017
▁accessible	-11.9018
▁infant	-11.9018
▁Early	-11.9021
▁Prot	-11.9025
super	-11.9026
bag	-11.9026
▁resembl	-11.9029
▁distracted	-11.9029
▁depends	-11.9033
▁rewarded	-11.9033
tell	-11.9033
▁north	-11.9038
▁partners	-11.904
▁DA	-11.9048
▁confronted	-11.9049
▁classy	-11.905
▁aiming	-11.905
▁Fields	-11.9053
first	-11.9059
number	-11.9059
-1	-11.9061
▁embarrassingly	-11.9063
sound	-11.9065
▁Peck	-11.9066
▁Cro	-11.9068
▁Muppets	-11.9074
▁Indiana	-11.9075
Our	-11.9078
▁Ol	-11.9084
ride	-11.9087
▁coke	-11.9093
midst	-11.9093
▁Glen	-11.9095
▁sane	-11.9096
▁Cannon	-11.9098
▁cameraman	-11.9106
▁Shah	-11.9107
▁blamed	-11.9107
▁Inter	-11.9109
city	-11.9112
▁integra	-11.9116
▁1959	-11.9116
▁Dexter	-11.9116
▁HUGE	-11.9116
▁Holocaust	-11.9116
▁Rhett	-11.9116
▁Service	-11.9116
▁VCR	-11.9116
▁choosing	-11.9116
▁collaboration	-11.9116
▁estranged	-11.9116
▁exploding	-11.9116
▁junior	-11.9116
▁lecture	-11.9116
▁mediocrity	-11.9116
▁persuade	-11.9116
▁recognise	-11.9116
▁samurai	-11.9116
▁skeleton	-11.9116
▁understatement	-11.9116
▁clerk	-11.9116
▁gigantic	-11.9116
▁Weaver	-11.9116
shed	-11.9116
▁tolerance	-11.9116
▁Speed	-11.9116
▁/>8/10	-11.9116
▁trigger	-11.9116
▁patron	-11.9117
▁Express	-11.9117
▁sought	-11.9117
▁unfamiliar	-11.9117
▁Mitch	-11.9117
▁Redford	-11.9118
▁75	-11.9118
▁Norton	-11.9119
▁ironically	-11.9119
▁Alison	-11.912
▁mold	-11.912
▁boast	-11.9121
▁employee	-11.9121
▁vibe	-11.9121
▁Sisters	-11.9121
▁Shin	-11.9122
▁Lester	-11.9123
▁Wang	-11.9123
▁readers	-11.9123
▁items	-11.9123
▁Wave	-11.9124
▁Nicolas	-11.9126
▁Isabelle	-11.9126
▁payoff	-11.9126
▁assert	-11.9127
▁shelter	-11.9127
▁Ponyo	-11.9128
▁daylight	-11.9131
▁BA	-11.9132
▁campus	-11.9134
ope	-11.9135
rang	-11.9135
▁educated	-11.9139
▁colours	-11.9147
▁damaged	-11.9148
▁dolls	-11.9149
▁sinking	-11.9151
OUR	-11.9157
▁likeable	-11.9163
▁wounds	-11.9163
▁verge	-11.9166
▁incidents	-11.9166
▁users	-11.9166
family	-11.9169
space	-11.917
25	-11.917
▁characteristics	-11.9174
uction	-11.9175
▁conscious	-11.9175
lva	-11.9179
Highly	-11.9182
▁croc	-11.9183
▁begging	-11.9184
cult	-11.9187
▁enthusiast	-11.9188
▁dwell	-11.919
▁Vin	-11.9191
populated	-11.9196
▁likewise	-11.9197
angle	-11.9198
Matt	-11.9201
EW	-11.9204
never	-11.9204
▁colleagues	-11.9205
▁Pig	-11.9206
▁reject	-11.9214
▁gloss	-11.9216
▁bars	-11.9217
lease	-11.9219
▁demonstrate	-11.9221
▁damned	-11.9222
▁1987	-11.9226
▁Bacall	-11.9226
▁Entertainment	-11.9226
▁Junior	-11.9226
▁Kermit	-11.9226
▁Kurosawa	-11.9226
▁Lansbury	-11.9226
▁Malkovich	-11.9226
▁draft	-11.9226
▁experiencing	-11.9226
▁havoc	-11.9226
▁redundant	-11.9226
▁stabbed	-11.9226
▁undeniably	-11.9226
▁Gadget	-11.9226
▁Georgia	-11.9226
▁Sherlock	-11.9226
▁Travis	-11.9226
▁Shelley	-11.9226
▁psychologist	-11.9226
▁misfit	-11.9226
▁Miranda	-11.9226
▁landmark	-11.9227
▁Coast	-11.9227
▁Niven	-11.9227
▁wimp	-11.9227
▁Guess	-11.9227
▁Segal	-11.9227
▁Garden	-11.9227
▁Seems	-11.9228
▁theories	-11.9229
▁clan	-11.923
▁Million	-11.9231
▁cries	-11.9232
▁ensue	-11.9233
aro	-11.9234
▁Christianity	-11.9235
▁stylized	-11.9235
ario	-11.9236
▁cartoonish	-11.9237
▁conveniently	-11.924
▁thug	-11.9243
▁Dec	-11.9244
hear	-11.9246
▁novelty	-11.9246
immer	-11.9247
▁comeback	-11.9248
jack	-11.9251
▁HK	-11.9252
▁Goodman	-11.9255
▁PS	-11.9257
▁weaker	-11.9259
Too	-11.926
toxic	-11.9261
▁gestures	-11.9262
▁depths	-11.9262
Final	-11.9268
▁seeming	-11.9268
▁distinguish	-11.9271
nzo	-11.9272
▁mod	-11.9274
▁Tap	-11.9275
▁conveyed	-11.9277
▁reviewed	-11.9283
▁mor	-11.9285
▁skilled	-11.9286
▁questioning	-11.9292
▁sober	-11.9293
▁midst	-11.9294
▁praised	-11.9295
▁politicians	-11.9296
▁slum	-11.9301
▁Jen	-11.9307
▁Lives	-11.9309
Basic	-11.9311
TY	-11.9312
▁Andrea	-11.9314
▁sweep	-11.9315
▁float	-11.9315
▁Belle	-11.9318
Eye	-11.9321
▁parallels	-11.9322
▁strengths	-11.9323
▁relentless	-11.9324
▁expand	-11.9325
▁screenwriters	-11.933
▁resurrect	-11.9335
▁1974	-11.9337
▁Chainsaw	-11.9337
▁Pacific	-11.9337
▁Schneider	-11.9337
▁dazzling	-11.9337
▁unsympathetic	-11.9337
▁whining	-11.9337
▁Sweden	-11.9337
▁bloke	-11.9337
▁buzz	-11.9337
▁staple	-11.9337
▁diminish	-11.9337
▁greet	-11.9337
▁Curse	-11.9337
▁saint	-11.9337
▁Otto	-11.9338
▁admission	-11.9338
▁drew	-11.9338
▁1998	-11.9338
▁hitch	-11.9338
▁Extra	-11.9338
▁polar	-11.9338
▁stripper	-11.9339
▁profile	-11.934
▁Antonioni	-11.9341
▁shotgun	-11.9341
▁Whoopi	-11.9345
▁Order	-11.9345
▁Rory	-11.9348
▁letdown	-11.9348
▁absorbing	-11.9349
▁Spider	-11.9349
▁Rider	-11.9351
▁mus	-11.9352
▁collector	-11.9353
▁scenarios	-11.9354
ICE	-11.9355
heart	-11.9357
▁Animal	-11.9358
righteous	-11.9361
▁jam	-11.9362
▁Beat	-11.9364
formed	-11.9365
▁bitten	-11.9366
▁Sit	-11.9367
▁Webb	-11.9368
▁profoundly	-11.9373
rough	-11.9376
▁Stop	-11.9378
▁Locke	-11.9378
▁Vampires	-11.9385
▁Elliott	-11.939
▁Mae	-11.939
Christopher	-11.9392
despite	-11.9392
▁adjust	-11.9393
second	-11.9393
Nothing	-11.9393
▁exploits	-11.9394
mission	-11.9394
▁billing	-11.9396
talent	-11.9396
must	-11.9397
spirited	-11.9398
▁mon	-11.9398
▁*1/2	-11.9403
▁encountered	-11.9404
asse	-11.9405
AGE	-11.9407
eer	-11.9411
ati	-11.9414
Pre	-11.9414
cid	-11.942
▁sch	-11.9424
▁invent	-11.9425
▁(?)	-11.9429
▁40'	-11.9431
▁seasoned	-11.9432
▁censor	-11.9432
sized	-11.9433
▁locate	-11.9433
▁Vol	-11.9436
UE	-11.9443
▁contradict	-11.9443
▁culminat	-11.9446
Both	-11.9446
▁excess	-11.9447
▁Court	-11.9449
▁Jersey	-11.945
▁complement	-11.945
▁determination	-11.945
▁horrified	-11.945
▁puppy	-11.945
▁Aztec	-11.945
▁Bakshi	-11.945
▁Ritchie	-11.945
▁abomination	-11.945
▁dwarf	-11.945
▁improbable	-11.945
▁parodies	-11.945
▁spectator	-11.945
▁vintage	-11.945
▁whiny	-11.945
▁Bishop	-11.945
▁repair	-11.945
▁1945	-11.945
▁slob	-11.945
▁Coburn	-11.945
▁Fritz	-11.945
▁Monica	-11.945
▁Der	-11.9451
▁percent	-11.9451
▁Marlow	-11.9452
▁Farley	-11.9453
▁popping	-11.9453
▁roar	-11.9453
▁agony	-11.9455
▁Jackass	-11.9458
▁snowman	-11.9458
▁Few	-11.9459
▁Vanessa	-11.946
▁'60	-11.9462
▁dumbest	-11.9464
▁exec	-11.9469
▁/>4.	-11.9469
▁dashing	-11.947
▁union	-11.9472
▁Mol	-11.9473
▁stalking	-11.9474
▁Chang	-11.9475
▁Janet	-11.9475
▁promoted	-11.9478
▁AD	-11.9478
▁Alas	-11.9479
▁Horn	-11.9487
uz	-11.9489
▁poses	-11.9495
▁refugee	-11.9496
100	-11.9498
▁newer	-11.9502
▁rang	-11.9503
mph	-11.9503
▁convinces	-11.9505
shirt	-11.9506
▁avenge	-11.9506
commun	-11.9515
▁Games	-11.9518
▁Cell	-11.9523
18	-11.9525
▁wash	-11.9531
▁END	-11.9531
▁Need	-11.9532
istan	-11.9534
breed	-11.9537
door	-11.9542
▁amaze	-11.9546
▁neglect	-11.9546
chan	-11.9546
▁manipulate	-11.9547
▁excruciating	-11.955
▁hippies	-11.9552
▁cad	-11.9558
▁goat	-11.9558
Watching	-11.956
▁Blo	-11.9562
▁applied	-11.9563
▁fragile	-11.9563
▁imaginary	-11.9563
▁nemesis	-11.9563
▁sleeve	-11.9563
▁aftermath	-11.9563
▁plodding	-11.9563
▁Small	-11.9563
▁eyebrow	-11.9563
▁polite	-11.9563
▁Kinski	-11.9563
▁graveyard	-11.9563
▁Moses	-11.9564
▁Hawn	-11.9564
▁DOES	-11.9565
▁Nathan	-11.9565
▁PBS	-11.9565
▁crippled	-11.9569
▁Joanna	-11.9569
▁hatch	-11.957
nik	-11.9572
standing	-11.9575
▁Boone	-11.9577
▁frat	-11.9577
▁rides	-11.958
▁establishing	-11.9588
mash	-11.9589
▁rightly	-11.9589
▁Clarke	-11.9591
▁Mall	-11.9593
▁Meet	-11.9598
▁;)	-11.9599
quin	-11.96
▁Loved	-11.9602
Hell	-11.9605
Dir	-11.961
▁uniforms	-11.9617
▁factual	-11.9623
Lost	-11.9624
▁exp	-11.9631
▁sensation	-11.9636
scenes	-11.9636
▁Pen	-11.9639
▁principals	-11.9642
mine	-11.9643
▁Due	-11.9644
tory	-11.9654
ease	-11.9655
▁Bess	-11.9658
case	-11.966
▁inherit	-11.9661
▁literal	-11.9665
▁suspected	-11.9669
▁Kent	-11.967
por	-11.9673
▁reports	-11.9673
▁hats	-11.9677
▁proceed	-11.9678
▁KNOW	-11.9678
▁Netflix	-11.9678
▁Sergio	-11.9678
▁bimbo	-11.9678
▁destination	-11.9678
▁naughty	-11.9678
▁pretension	-11.9678
▁regain	-11.9678
▁Casper	-11.9678
▁whale	-11.9678
▁nutshell	-11.9678
▁ordeal	-11.9678
▁Alicia	-11.9678
▁Lucille	-11.9678
▁communist	-11.9678
▁Turkey	-11.9678
▁summarize	-11.9679
▁unattractive	-11.9679
▁terminal	-11.9679
▁Madison	-11.9679
▁Jolie	-11.9679
▁Warhol	-11.968
▁skinny	-11.968
▁Hogan	-11.9681
▁Place	-11.9681
▁scored	-11.9681
classic	-11.9681
▁bible	-11.9682
▁revel	-11.9683
▁artistry	-11.9684
▁homo	-11.9685
▁undermine	-11.9685
▁NOW	-11.9685
▁tri	-11.9686
▁200	-11.9686
▁captivated	-11.9687
iding	-11.9687
▁efficient	-11.9688
▁Romanian	-11.9688
▁cater	-11.9689
▁promptly	-11.969
▁Lois	-11.969
▁Dante	-11.969
▁Vance	-11.9691
▁DJ	-11.9693
▁Soldier	-11.9695
▁vehicles	-11.9695
▁survivor	-11.9696
▁Normally	-11.9696
▁DI	-11.9698
lick	-11.9699
▁sweeping	-11.9701
▁summe	-11.9701
▁Paulie	-11.9702
▁alert	-11.9702
Far	-11.9703
▁freaky	-11.9703
▁Body	-11.9707
▁meantime	-11.9711
▁fuss	-11.9713
▁degenerate	-11.9716
ended	-11.972
MB	-11.9724
wear	-11.973
bear	-11.9736
Sorry	-11.9737
Next	-11.9737
dream	-11.9737
Film	-11.9737
yeah	-11.9738
uch	-11.9742
▁pole	-11.9743
Fu	-11.9744
Wow	-11.9748
count	-11.9749
igan	-11.9751
▁finishing	-11.9751
▁/>**	-11.9752
▁Boring	-11.9752
▁paints	-11.9756
▁interviewed	-11.9757
▁comparisons	-11.9757
▁>	-11.9763
owing	-11.9767
▁intensely	-11.9769
▁sour	-11.9769
▁chill	-11.977
▁Tea	-11.9772
▁Bava	-11.9775
▁convert	-11.9779
▁mysteriously	-11.978
▁immense	-11.9781
stead	-11.9783
BS	-11.9785
ency	-11.9786
close	-11.979
mini	-11.9791
▁sensual	-11.9793
▁Cronenberg	-11.9794
▁Eisenstein	-11.9794
▁Enterprise	-11.9794
▁Lombard	-11.9794
▁McLaglen	-11.9794
▁surrender	-11.9794
▁Giallo	-11.9794
▁historian	-11.9794
▁innuendo	-11.9794
▁repressed	-11.9794
▁sanity	-11.9794
▁tomorrow	-11.9794
▁/>3/10	-11.9794
▁Crosby	-11.9794
▁battling	-11.9794
▁sorrow	-11.9794
▁Lorre	-11.9794
▁videotape	-11.9794
▁replies	-11.9795
▁feeble	-11.9795
▁enigmatic	-11.9795
▁cease	-11.9795
ACK	-11.9796
▁Prison	-11.9796
▁Sharon	-11.9796
rising	-11.9797
▁sentimentality	-11.9799
▁update	-11.9799
▁spur	-11.9799
▁introducing	-11.98
▁Mur	-11.98
▁secure	-11.9802
Mu	-11.9805
▁Drama	-11.9806
▁300	-11.9806
▁truthful	-11.9807
▁Dern	-11.9807
▁Within	-11.9809
ware	-11.9809
▁insights	-11.981
▁mighty	-11.9811
▁routines	-11.9812
▁Wizard	-11.9814
▁resident	-11.9815
▁organized	-11.9817
▁eagerly	-11.9818
▁vividly	-11.9821
cial	-11.9822
▁masterfully	-11.9823
▁Stand	-11.9824
cade	-11.9825
▁speaker	-11.9826
▁Lara	-11.9828
▁Ava	-11.9837
▁Goes	-11.9837
▁tickets	-11.9837
▁settled	-11.984
OUS	-11.9848
Yeah	-11.9855
important	-11.9855
Because	-11.9855
dramatic	-11.9856
giving	-11.9856
realistic	-11.9859
level	-11.9859
▁endings	-11.986
▁laws	-11.9861
▁improv	-11.9861
Back	-11.9863
▁wipe	-11.9865
▁Kir	-11.9866
▁DR	-11.9869
▁Foot	-11.9873
▁gaps	-11.9874
turned	-11.9877
media	-11.9886
itive	-11.9886
scope	-11.9888
rai	-11.9893
IF	-11.9895
▁declare	-11.9896
▁item	-11.9898
▁Rea	-11.99
▁bias	-11.99
▁crossed	-11.9903
killer	-11.9906
▁foundation	-11.9911
▁Scorsese	-11.9912
reservation	-11.9912
▁Detroit	-11.9912
▁Phoenix	-11.9912
▁admiration	-11.9912
▁cerebral	-11.9912
▁honour	-11.9912
▁pompous	-11.9912
▁decay	-11.9912
▁injury	-11.9912
▁bittersweet	-11.9912
▁mutual	-11.9912
▁swept	-11.9913
▁raising	-11.9913
▁slapped	-11.9913
▁spray	-11.9913
▁scarier	-11.9913
▁taut	-11.9913
▁EVERY	-11.9915
▁Room	-11.9915
▁intact	-11.9915
▁Hotel	-11.9916
▁nonexistent	-11.9916
▁Franklin	-11.9916
▁Making	-11.9917
▁believability	-11.9919
▁exclusively	-11.9919
▁records	-11.9921
▁reign	-11.9922
▁divided	-11.9923
▁filthy	-11.9923
▁Straight	-11.9923
▁acquired	-11.9925
▁offense	-11.9927
▁offbeat	-11.9927
▁updated	-11.9929
▁leaders	-11.9929
cour	-11.9929
▁Kol	-11.9933
▁Mack	-11.9933
▁colleague	-11.9935
▁superstar	-11.9937
▁boarding	-11.9938
▁dash	-11.9939
▁melting	-11.9941
▁frames	-11.9941
pposed	-11.9941
▁wholesome	-11.9942
▁faded	-11.9944
▁Robertson	-11.9944
▁Chance	-11.9944
▁evidently	-11.9945
▁mat	-11.9945
▁smiles	-11.9951
hoe	-11.9957
▁Lena	-11.9959
▁arrow	-11.9961
natural	-11.997
▁mole	-11.9971
Hara	-11.9972
Batman	-11.9974
Charles	-11.9975
▁Lili	-11.9977
▁tightly	-11.9979
▁outcast	-11.998
happy	-11.9983
telling	-11.9985
▁poet	-11.9986
Mark	-11.9986
fused	-11.9988
▁Rangers	-11.9988
▁jar	-11.9991
since	-11.9998
▁starters	-12.0003
bbed	-12.0012
▁extend	-12.0016
▁Gee	-12.0017
▁supreme	-12.0018
give	-12.002
▁pilots	-12.0027
▁fabric	-12.003
▁razor	-12.0031
▁Portuguese	-12.0031
▁Tokyo	-12.0031
▁Vaughn	-12.0031
▁approve	-12.0031
▁complications	-12.0031
▁denouement	-12.0031
▁fragment	-12.0031
▁turmoil	-12.0031
▁Poirot	-12.0031
▁ceiling	-12.0031
▁Wendy	-12.0031
▁phase	-12.0031
▁Curly	-12.0031
▁Macbeth	-12.0031
▁Kilmer	-12.0031
▁Lumet	-12.0031
▁groundbreaking	-12.0032
▁Emmy	-12.0032
▁Marlon	-12.0033
▁noteworthy	-12.0033
▁Horse	-12.0033
▁Benny	-12.0037
▁Bert	-12.0037
atomic	-12.0038
▁Reid	-12.0041
meaning	-12.0042
▁nuanced	-12.0042
▁biting	-12.0042
via	-12.0043
▁noticeable	-12.0045
ography	-12.0051
▁Romeo	-12.0052
▁tormented	-12.0053
true	-12.0054
▁Didn	-12.0055
nalyze	-12.0057
ASH	-12.0057
▁Hawke	-12.006
lessness	-12.0061
▁subsequently	-12.0062
▁Chucky	-12.0063
▁exploited	-12.0065
▁hysterically	-12.0066
▁stoned	-12.0071
▁freeze	-12.0072
▁Citizen	-12.0074
▁sells	-12.0076
▁Stranger	-12.0076
cin	-12.0079
▁forbidden	-12.0079
▁CAR	-12.0079
▁prom	-12.0088
▁Blues	-12.009
▁assist	-12.009
Meanwhile	-12.0094
36	-12.0095
Basically	-12.0095
▁Pick	-12.0095
flick	-12.0096
▁shameless	-12.0099
Old	-12.01
around	-12.0105
migr	-12.0108
won	-12.0112
haired	-12.0114
cie	-12.0119
▁/>****	-12.0124
hill	-12.0125
▁decid	-12.0125
▁joint	-12.0125
▁shifts	-12.0127
▁Lange	-12.0127
once	-12.013
▁rounded	-12.0135
▁condemn	-12.0135
▁graduate	-12.0135
mouthed	-12.0137
characterisation	-12.0141
▁resulted	-12.0142
▁Jude	-12.0144
▁Brazil	-12.0145
care	-12.0145
▁shades	-12.0146
▁dumber	-12.0148
▁Masters	-12.0149
shaw	-12.0149
Jurassic	-12.0152
▁Costner	-12.0152
▁Fontaine	-12.0152
▁Hawaii	-12.0152
▁Melissa	-12.0152
▁Sebastian	-12.0152
▁furniture	-12.0152
▁inclined	-12.0152
▁monotonous	-12.0152
▁physics	-12.0152
▁psychedelic	-12.0152
▁revisit	-12.0152
▁sabotage	-12.0152
▁curtain	-12.0152
▁retrieve	-12.0152
▁Doyle	-12.0152
▁tiger	-12.0152
▁Center	-12.0152
▁Cecil	-12.0152
▁Holland	-12.0152
▁Posey	-12.0152
▁Sundance	-12.0152
▁1991	-12.0152
▁dictator	-12.0152
▁entries	-12.0153
▁ACT	-12.0153
▁paycheck	-12.0153
▁Rodney	-12.0153
▁undergo	-12.0153
▁comprise	-12.0153
▁Herbert	-12.0154
▁roam	-12.0154
▁LOL	-12.0155
▁lighthearted	-12.0156
▁Finger	-12.0157
▁Chaney	-12.0157
▁subway	-12.0158
▁sketches	-12.0159
▁Valentine	-12.0161
▁Totally	-12.0162
▁grit	-12.0165
same	-12.0165
▁pr	-12.0165
▁excruciatingly	-12.0165
▁assembled	-12.0166
▁WHO	-12.0167
▁nit	-12.0171
▁Grier	-12.0173
▁Jew	-12.0174
▁suburb	-12.0174
!).<	-12.0176
▁crooked	-12.0177
▁Tales	-12.0177
▁Steele	-12.018
▁discussed	-12.0186
▁Him	-12.0186
hee	-12.0188
▁stereotyped	-12.0189
▁heels	-12.0189
▁beware	-12.019
▁Jose	-12.0191
▁arguments	-12.0193
▁Gru	-12.0196
▁crown	-12.0196
▁covering	-12.0202
▁Born	-12.0204
?????	-12.0206
▁mechanic	-12.0207
▁baddies	-12.0207
▁defy	-12.021
MO	-12.0211
▁suitabl	-12.0211
COM	-12.0212
45	-12.0214
▁Ark	-12.0216
Blue	-12.0216
▁manic	-12.0216
▁Nation	-12.0221
office	-12.0226
▁hyped	-12.0226
▁qualifie	-12.0227
need	-12.0229
▁unusually	-12.0233
Anne	-12.0233
▁shameful	-12.0235
▁freaks	-12.0242
▁si	-12.025
▁cliched	-12.0252
▁gunfight	-12.0256
▁statements	-12.0268
▁deliberate	-12.0268
▁ward	-12.0272
▁Kinnear	-12.0273
▁Lundgren	-12.0273
▁cunning	-12.0273
▁Behind	-12.0274
▁Bunuel	-12.0274
▁Lopez	-12.0274
▁Shepherd	-12.0274
▁Sophie	-12.0274
▁Timberlake	-12.0274
▁chemical	-12.0274
▁implication	-12.0274
▁surgeon	-12.0274
▁vigilante	-12.0274
▁voyage	-12.0274
▁essay	-12.0274
▁quasi	-12.0274
▁unsuccessful	-12.0274
▁branch	-12.0274
▁2008	-12.0275
▁depart	-12.0276
ombi	-12.0276
order	-12.0277
▁customers	-12.0278
ivity	-12.0278
▁fever	-12.0278
▁landed	-12.0278
▁unclear	-12.028
▁Lead	-12.028
▁judgement	-12.028
▁furious	-12.028
Was	-12.0281
▁sang	-12.0282
▁reserved	-12.0282
▁Raines	-12.0284
▁Rice	-12.0284
▁dramatically	-12.0284
▁Gina	-12.0286
▁Len	-12.0287
▁Fantastic	-12.0289
▁unconscious	-12.0289
hell	-12.0289
▁neglected	-12.0292
▁CR	-12.0294
▁betrayed	-12.0295
▁robber	-12.0296
▁contestants	-12.0297
▁28	-12.0307
▁Michel	-12.031
▁boobs	-12.0312
▁Speaking	-12.0312
▁Ultimately	-12.0314
▁texture	-12.0314
▁cloth	-12.0314
had	-12.0315
▁reflected	-12.0317
▁daytime	-12.0317
▁affecting	-12.0318
▁photographs	-12.032
▁Boyer	-12.032
▁remembering	-12.0323
▁admired	-12.0325
▁Reno	-12.0327
ERO	-12.033
▁insults	-12.0335
▁surfer	-12.0339
Besides	-12.034
together	-12.034
believe	-12.034
Jones	-12.0342
▁smarter	-12.0354
▁SP	-12.0363
▁1000	-12.0363
▁circles	-12.0366
▁Tobe	-12.0372
▁flows	-12.0374
13	-12.0376
▁eliminate	-12.0381
▁determine	-12.0381
▁plants	-12.0381
▁frank	-12.0385
▁Holy	-12.0394
▁Creep	-12.0395
▁meteor	-12.0397
▁BLOOD	-12.0397
▁Corbett	-12.0397
▁Phoebe	-12.0397
▁Sunshine	-12.0397
▁assumption	-12.0397
▁chorus	-12.0397
▁fodder	-12.0397
▁lurking	-12.0397
▁recipe	-12.0397
▁unanswered	-12.0397
▁Effect	-12.0397
▁stylistic	-12.0397
▁manifest	-12.0397
▁spoon	-12.0397
▁Television	-12.0397
▁Wayans	-12.0397
▁reckless	-12.0397
▁Pickford	-12.0397
▁fraud	-12.0397
▁anguish	-12.0397
▁void	-12.0397
▁morph	-12.0397
▁cherish	-12.0398
▁immigrants	-12.0398
▁email	-12.0398
▁Darren	-12.0398
▁underdeveloped	-12.0399
▁Gamera	-12.0399
▁clunky	-12.0399
sick	-12.0399
▁popped	-12.04
▁Eight	-12.04
▁salesman	-12.0401
▁gloomy	-12.0401
▁Yep	-12.0401
▁Patty	-12.0402
▁brick	-12.0403
▁loan	-12.0407
▁Money	-12.0407
▁downfall	-12.0407
▁Terminator	-12.0407
▁rust	-12.041
doing	-12.0411
▁log	-12.0413
▁enchanting	-12.0414
iya	-12.0417
▁NIGHT	-12.0417
Em	-12.0418
numbing	-12.0418
▁Heath	-12.042
▁stride	-12.042
▁Twin	-12.0421
▁nuances	-12.0421
▁restrict	-12.0422
▁rendering	-12.0424
▁sentences	-12.0424
▁Carla	-12.0432
▁Cave	-12.0433
▁dub	-12.0442
▁expertly	-12.0449
▁Chen	-12.0449
serious	-12.0452
▁bro	-12.0463
frame	-12.0465
Grade	-12.0465
Jeff	-12.0466
▁enable	-12.0469
▁slaves	-12.0469
Over	-12.0472
lude	-12.0474
▁Buy	-12.0478
▁eh	-12.0479
half	-12.0481
▁reminding	-12.0483
▁Firstly	-12.0484
▁Nat	-12.0485
▁stuffed	-12.0485
▁fetched	-12.0485
▁robbers	-12.049
named	-12.049
▁/>8	-12.0493
▁parking	-12.0493
▁holy	-12.0493
mail	-12.0497
plots	-12.0499
▁flirt	-12.05
▁hateful	-12.0502
talking	-12.0503
▁Barb	-12.0504
▁trivia	-12.0506
▁Wall	-12.0506
▁joining	-12.0512
▁Eat	-12.0514
▁Six	-12.0517
?!?	-12.0519
▁Friend	-12.0521
▁stereo	-12.0522
Home	-12.0522
▁Brynner	-12.0522
▁Monkees	-12.0522
▁Squad	-12.0522
▁capacity	-12.0522
▁chaotic	-12.0522
▁electronic	-12.0522
▁elicit	-12.0522
▁monitor	-12.0522
▁murky	-12.0522
▁oblivious	-12.0522
▁suffice	-12.0522
▁woven	-12.0522
▁balloon	-12.0522
▁strung	-12.0522
▁Gandhi	-12.0522
▁sincerity	-12.0522
▁Shannon	-12.0522
▁barrier	-12.0522
▁Internet	-12.0522
▁Creek	-12.0522
▁Simple	-12.0522
▁advertisement	-12.0523
▁spew	-12.0523
▁staging	-12.0523
▁inspector	-12.0523
▁distinctive	-12.0523
hab	-12.0523
▁Jules	-12.0524
▁Debra	-12.0524
▁Brett	-12.0524
▁Burke	-12.0524
▁waist	-12.0526
▁Goldie	-12.0527
▁Brendan	-12.0527
▁switches	-12.053
▁benefits	-12.053
▁Fantasy	-12.0531
▁Sabrina	-12.0533
lene	-12.0536
▁deliciously	-12.0537
▁evokes	-12.0543
▁Shemp	-12.0547
baked	-12.0549
▁SE	-12.0549
▁Fish	-12.055
▁Abbott	-12.0553
▁Pia	-12.0555
▁Mama	-12.0557
▁reviewing	-12.0557
▁achieves	-12.0559
▁thumb	-12.056
▁cloud	-12.0561
▁followers	-12.0562
▁gathering	-12.0563
▁85	-12.0567
ISH	-12.0574
▁Ana	-12.0579
▁tuned	-12.0581
Angel	-12.059
Daniel	-12.0591
White	-12.0591
documentary	-12.0591
political	-12.0591
pathetic	-12.0591
▁packs	-12.0591
scary	-12.0593
Jason	-12.0593
Unlike	-12.0594
Up	-12.0603
▁apologize	-12.0607
▁Tin	-12.0609
whose	-12.0609
▁SI	-12.0618
▁glimpses	-12.0621
▁Gram	-12.0621
▁flowing	-12.0624
▁Bol	-12.0628
ggle	-12.0631
jokes	-12.0635
▁vanish	-12.0636
▁convention	-12.0637
phon	-12.064
▁blur	-12.0644
▁peril	-12.0646
▁Gooding	-12.0648
▁Daffy	-12.0649
▁Scorpion	-12.0649
▁biblical	-12.0649
▁compound	-12.0649
▁identified	-12.0649
▁inconsistencies	-12.0649
▁macabre	-12.0649
▁obscurity	-12.0649
▁releasing	-12.0649
▁spontaneous	-12.0649
▁uncanny	-12.0649
▁varied	-12.0649
▁WOW	-12.0649
▁feminine	-12.0649
▁atrocity	-12.0649
▁prevail	-12.0649
▁erupt	-12.0649
▁incestuous	-12.0649
▁Thorn	-12.0649
Boogie	-12.0649
▁mythology	-12.0649
▁array	-12.0649
▁rousing	-12.0649
▁knight	-12.0649
▁Hooper	-12.0649
▁courtroom	-12.0649
▁choke	-12.065
▁Lucio	-12.065
▁Jungle	-12.065
▁terr	-12.0651
▁Garland	-12.0651
▁Hackman	-12.0652
▁desk	-12.0655
▁bearable	-12.0655
▁refus	-12.0658
▁Hor	-12.0658
▁download	-12.0658
▁flames	-12.0659
▁Lola	-12.0661
▁stretches	-12.0661
▁Liu	-12.0662
▁Color	-12.0665
▁Wrong	-12.0665
▁Nurse	-12.0665
▁Revenge	-12.0667
vyn	-12.0668
▁preaching	-12.0669
▁outrage	-12.0671
▁crosses	-12.0673
▁invested	-12.0675
URE	-12.0677
▁Door	-12.0681
▁Wu	-12.0684
nick	-12.0688
splitting	-12.0692
▁stupidest	-12.0693
ookie	-12.0693
▁climbing	-12.0696
▁Ble	-12.0698
isten	-12.0698
horn	-12.0698
▁complained	-12.0704
▁commend	-12.0704
▁Near	-12.0706
22	-12.0707
▁Dogs	-12.0707
▁Hung	-12.0712
▁Prom	-12.0714
average	-12.0719
Those	-12.072
bird	-12.0721
every	-12.0722
▁Moran	-12.0725
▁List	-12.0726
Jim	-12.0726
respect	-12.0734
▁witnessing	-12.0737
ternal	-12.0739
▁heighten	-12.0739
seen	-12.0739
▁Tara	-12.0739
TING	-12.0743
▁maintains	-12.0746
!!)	-12.075
▁camping	-12.075
▁announce	-12.0751
▁/>1)	-12.0751
ploitation	-12.0751
▁mut	-12.0752
▁origins	-12.0753
▁FO	-12.0757
Plan	-12.0758
▁prompt	-12.0764
▁squeeze	-12.0771
▁temper	-12.0773
▁brush	-12.0773
▁Romania	-12.0775
▁Gerald	-12.0776
▁ALERT	-12.0777
▁manufactur	-12.0777
▁remorse	-12.0777
▁Attenborough	-12.0777
▁Fishburne	-12.0777
▁Kaufman	-12.0777
▁Nielsen	-12.0777
▁cocaine	-12.0777
▁inaccuracies	-12.0777
▁influential	-12.0777
▁marvellous	-12.0777
▁occult	-12.0777
▁slept	-12.0777
▁streak	-12.0777
▁whisper	-12.0777
▁mystical	-12.0777
▁casino	-12.0777
▁grisly	-12.0777
▁relating	-12.0777
esteem	-12.0777
▁auteur	-12.0777
▁foremost	-12.0777
▁Kingsley	-12.0777
▁reruns	-12.0777
▁1976	-12.0777
▁motif	-12.0777
▁Finney	-12.0777
▁resonate	-12.0777
▁representative	-12.0777
▁Hulk	-12.0778
▁SOME	-12.0778
▁Cassie	-12.0778
▁POW	-12.0779
▁Knightley	-12.0779
▁Truth	-12.0779
▁Find	-12.0779
▁instructor	-12.0779
▁Guard	-12.0779
▁Dancing	-12.0779
▁Ariel	-12.0779
▁ninety	-12.078
▁ads	-12.078
▁torch	-12.0782
▁Driver	-12.0782
▁vow	-12.0786
▁existing	-12.0786
drawn	-12.0787
rg	-12.0787
▁Godard	-12.0787
▁Micheal	-12.0788
▁Othello	-12.0788
▁Dodge	-12.079
▁replay	-12.079
▁playboy	-12.079
▁momentum	-12.0792
▁Dom	-12.0792
▁Mandy	-12.0794
▁inserted	-12.0799
▁highway	-12.08
▁patriotic	-12.0801
UGH	-12.0801
▁DAY	-12.0802
▁Ricky	-12.0803
▁Going	-12.0807
trust	-12.0808
▁wartime	-12.081
▁addressed	-12.0812
▁progressed	-12.0814
▁shocker	-12.0818
▁wherever	-12.0827
▁Kra	-12.0829
▁cheering	-12.0835
▁gasp	-12.0838
thought	-12.0839
▁mirrors	-12.0841
▁Shop	-12.0843
Seriously	-12.0849
Halloween	-12.0849
loving	-12.0853
▁pounds	-12.0854
▁Guil	-12.0856
being	-12.0859
Four	-12.086
▁Magic	-12.0861
▁rag	-12.0864
▁irre	-12.0878
▁Denis	-12.0885
▁glow	-12.0887
47	-12.089
▁precise	-12.0894
▁grant	-12.0894
▁Odd	-12.0896
▁Capt	-12.0897
Mary	-12.09
personal	-12.0902
▁Heat	-12.0902
▁Meredith	-12.0907
▁ghastly	-12.0907
▁policy	-12.0907
▁1933	-12.0907
▁Government	-12.0907
▁Guinness	-12.0907
▁arriving	-12.0907
▁espionage	-12.0907
▁facility	-12.0907
▁maximum	-12.0907
▁nifty	-12.0907
▁sandwich	-12.0907
▁Firth	-12.0907
▁Kahn	-12.0907
▁Regardless	-12.0907
▁athletic	-12.0907
▁strive	-12.0907
▁parrot	-12.0907
▁Islam	-12.0907
▁dodgy	-12.0907
▁Twist	-12.0907
▁1977	-12.0907
▁1936	-12.0907
▁snail	-12.0908
▁replacement	-12.0909
▁lump	-12.0909
ealand	-12.091
▁spies	-12.0911
▁Metal	-12.0913
▁Cody	-12.0913
▁overweight	-12.0914
▁anticipated	-12.0916
▁readily	-12.0917
▁Drive	-12.0918
▁distributed	-12.092
▁Atlantis	-12.0921
▁Porter	-12.0921
Miss	-12.0922
▁Springer	-12.0922
▁tenant	-12.0925
▁County	-12.0927
▁stalked	-12.0928
▁villainous	-12.0929
▁Shining	-12.0933
▁Cain	-12.0937
24	-12.0937
▁babes	-12.0938
▁enduring	-12.0939
▁sheet	-12.094
▁mobile	-12.0941
▁sap	-12.0941
rix	-12.0943
▁Ride	-12.0945
▁HAL	-12.0947
▁Happy	-12.095
poo	-12.095
▁attending	-12.0952
▁scratching	-12.0953
▁politician	-12.0955
lio	-12.0959
▁Blu	-12.0961
lover	-12.0963
▁Anti	-12.0969
▁imply	-12.0973
Steve	-12.0976
wreck	-12.0981
girlfriend	-12.0982
▁citizen	-12.0984
▁outset	-12.0986
Super	-12.0988
Out	-12.099
!!!!!!!!!	-12.0991
neck	-12.0992
west	-12.0992
▁excellently	-12.0993
▁Card	-12.0994
ulk	-12.0994
▁Alba	-12.0996
▁disturb	-12.0999
▁breathing	-12.1003
illian	-12.1008
▁wings	-12.1017
waiting	-12.102
saw	-12.1023
BE	-12.1023
hmm	-12.1025
▁FL	-12.1028
▁monkeys	-12.1029
osi	-12.103
▁employees	-12.1033
▁restore	-12.1035
▁poo	-12.1035
▁slut	-12.1037
Cat	-12.1038
▁Rathbone	-12.1038
▁Thurman	-12.1038
▁Tierney	-12.1038
▁1985	-12.1038
▁Gentlemen	-12.1038
▁Possibly	-12.1038
▁ambiguity	-12.1038
▁celebrities	-12.1038
▁component	-12.1038
▁fuzzy	-12.1038
▁misunderstood	-12.1038
▁occurrence	-12.1038
▁optimistic	-12.1038
▁unappealing	-12.1038
▁Dustin	-12.1038
▁Puerto	-12.1038
▁captive	-12.1038
▁buffoon	-12.1038
▁thunder	-12.1038
▁abroad	-12.1038
▁vapid	-12.1038
▁suppress	-12.1038
▁Northern	-12.1039
▁hypnotic	-12.1039
▁woke	-12.1039
▁kingdom	-12.1039
▁youngsters	-12.1039
▁Running	-12.1039
▁Combs	-12.104
▁hostile	-12.104
▁midget	-12.104
▁Juliette	-12.1041
▁grey	-12.1041
▁stating	-12.1042
▁Guest	-12.1044
▁Tilly	-12.1045
▁lightning	-12.1045
▁Nina	-12.1046
▁Sirk	-12.1047
layered	-12.1047
Natural	-12.1047
▁effortlessly	-12.1048
▁sunk	-12.1049
▁mindset	-12.105
▁Modern	-12.1051
▁awareness	-12.1051
▁dorm	-12.1051
▁Chow	-12.1054
▁Fever	-12.1055
▁Leave	-12.1057
fect	-12.1058
▁celebrated	-12.1058
▁Crime	-12.1059
▁Para	-12.1062
▁Greene	-12.1066
person	-12.1067
▁relaxed	-12.1067
dice	-12.1067
cover	-12.1067
▁terrorize	-12.1068
▁transported	-12.1069
▁smoothly	-12.1069
ona	-12.107
▁tack	-12.1071
witch	-12.1072
▁Jaws	-12.1073
▁clad	-12.1073
▁upbeat	-12.1075
▁peek	-12.1075
▁glove	-12.1078
▁Late	-12.108
May	-12.1081
▁Mira	-12.1081
PA	-12.1098
▁Mostly	-12.1103
▁prank	-12.1105
▁View	-12.1108
▁Rio	-12.1111
inducing	-12.1114
Definitely	-12.1114
however	-12.1116
Shark	-12.1117
▁fleshed	-12.1121
▁dynamics	-12.1124
▁Chill	-12.1132
▁bombed	-12.1133
five	-12.1138
▁reunite	-12.1155
poor	-12.1158
▁alleged	-12.1159
▁deer	-12.116
▁decor	-12.1171
▁Dove	-12.1171
▁1934	-12.1172
▁Einstein	-12.1172
▁Pamela	-12.1172
▁Urban	-12.1172
▁centuries	-12.1172
▁excellence	-12.1172
▁mannequin	-12.1172
▁squirm	-12.1172
▁superfluous	-12.1172
▁tattoo	-12.1172
▁werewolves	-12.1172
▁framing	-12.1172
▁hurry	-12.1172
▁subdued	-12.1172
Follow	-12.1172
▁Sissy	-12.1172
▁mourn	-12.1172
▁detect	-12.1172
▁programming	-12.1172
delusion	-12.1172
▁flipping	-12.1173
▁resistance	-12.1173
▁Pass	-12.1173
▁investment	-12.1173
▁Stack	-12.1174
▁consciousness	-12.1174
▁Loren	-12.1174
▁slop	-12.1174
▁Rudy	-12.1175
▁/>2)	-12.1175
lung	-12.1176
▁Pitch	-12.1176
▁protection	-12.1176
▁Wax	-12.1177
▁daddy	-12.1177
▁Sammy	-12.1178
▁listened	-12.1178
▁Kin	-12.1178
▁skeptical	-12.1179
▁spotted	-12.1179
▁punchline	-12.1179
▁preacher	-12.1181
▁CON	-12.1182
ego	-12.1182
▁narrated	-12.1185
▁Ghoulies	-12.1186
▁Marsh	-12.1187
▁ray	-12.1187
▁interrupted	-12.1188
▁fable	-12.1189
▁fortunately	-12.119
▁Uma	-12.1193
▁fairness	-12.1194
▁ideals	-12.1195
▁dominated	-12.1196
▁til	-12.12
Warning	-12.1202
▁demonstrated	-12.1203
dale	-12.1204
▁bashing	-12.1206
▁THEY	-12.1207
▁peers	-12.1209
▁invite	-12.1211
▁Timon	-12.1212
▁swinging	-12.1213
▁dealers	-12.122
▁unfolding	-12.1225
▁frontal	-12.1227
▁consequence	-12.1228
blood	-12.1234
DY	-12.1238
related	-12.1248
Kevin	-12.1249
Brian	-12.1249
cycle	-12.1251
▁astronaut	-12.1251
▁inmates	-12.1251
▁Gig	-12.1252
Scream	-12.1252
Note	-12.1256
▁ants	-12.1257
▁thro	-12.1258
▁obstacles	-12.1262
Mel	-12.1264
▁Wilde	-12.1265
packed	-12.1265
▁Mob	-12.1271
▁Leg	-12.1281
Pat	-12.1285
▁bury	-12.1286
▁construct	-12.1288
▁punish	-12.1292
▁extract	-12.1292
alien	-12.1292
UP	-12.13
▁Globe	-12.1307
▁Rebecca	-12.1307
▁admirably	-12.1307
▁nightmarish	-12.1307
▁Atlantic	-12.1307
▁Eagle	-12.1307
▁Estevez	-12.1307
▁Hospital	-12.1307
▁Huppert	-12.1307
▁McCarthy	-12.1307
▁Moriarty	-12.1307
▁Plenty	-12.1307
▁Redgrave	-12.1307
▁Vacation	-12.1307
▁carnage	-12.1307
▁dvd	-12.1307
▁pizza	-12.1307
▁reinforce	-12.1307
▁rhyme	-12.1307
▁salvage	-12.1307
▁Byrne	-12.1307
▁Gromit	-12.1307
▁suave	-12.1307
▁Edith	-12.1307
▁Shearer	-12.1307
▁Suddenly	-12.1307
▁railroad	-12.1307
▁elected	-12.1307
▁snatch	-12.1307
▁Hallmark	-12.1307
▁snappy	-12.1307
▁Bloom	-12.1307
▁dawn	-12.1307
▁ladder	-12.1307
▁annoyance	-12.1307
▁gar	-12.1308
▁digging	-12.1308
▁rewrite	-12.1309
▁drawback	-12.1309
▁Gillian	-12.1309
▁accomplishment	-12.1309
▁spotlight	-12.131
▁Romance	-12.131
▁distinction	-12.1311
former	-12.1312
▁temple	-12.1315
▁miner	-12.1316
▁Ker	-12.1316
▁Um	-12.1316
▁sleepwalk	-12.1318
▁hopeful	-12.132
▁Silent	-12.1322
OSS	-12.1323
▁helm	-12.1323
▁plod	-12.1326
▁Polly	-12.1329
▁Cube	-12.1332
▁civilians	-12.1334
▁similarity	-12.1335
▁executives	-12.1335
▁servants	-12.1337
gee	-12.1344
earn	-12.1344
music	-12.1349
▁forgetting	-12.1356
Angelo	-12.1356
▁Scenes	-12.1357
TR	-12.1359
▁feeding	-12.1361
▁sexist	-12.1364
▁Vega	-12.1367
▁sporting	-12.1368
luck	-12.1369
sided	-12.138
either	-12.1381
lby	-12.1383
daughter	-12.1386
Jennifer	-12.1386
should	-12.1386
Victor	-12.1386
▁outsider	-12.1387
▁ranger	-12.1387
guard	-12.1389
Much	-12.1389
Play	-12.1389
due	-12.139
better	-12.1391
▁explodes	-12.1391
keeper	-12.1393
▁thereby	-12.1394
tube	-12.1396
▁officials	-12.1396
speaking	-12.14
▁drown	-12.1405
▁Ven	-12.1411
▁Lot	-12.1414
▁seal	-12.1417
▁preach	-12.1423
▁sufficient	-12.1431
tely	-12.1433
▁Pegg	-12.1435
▁cram	-12.1438
▁Republic	-12.1442
scale	-12.1443
▁cohesive	-12.1444
ellweger	-12.1444
▁1957	-12.1444
▁Berkeley	-12.1444
▁Deneuve	-12.1444
▁JUST	-12.1444
▁Penelope	-12.1444
▁Rukh	-12.1444
▁Square	-12.1444
▁comparable	-12.1444
▁custody	-12.1444
▁devotion	-12.1444
▁earliest	-12.1444
▁endeavor	-12.1444
▁gravity	-12.1444
▁schizophrenic	-12.1444
▁succumb	-12.1444
▁suicidal	-12.1444
▁independence	-12.1444
▁Naschy	-12.1444
▁Henson	-12.1444
▁Hungarian	-12.1444
▁overtones	-12.1444
▁Irwin	-12.1444
▁vault	-12.1444
▁robbed	-12.1444
▁Basil	-12.1444
▁Klein	-12.1444
▁shuttle	-12.1444
▁awry	-12.1444
▁palace	-12.1444
▁exploitative	-12.1444
▁Anything	-12.1444
▁Miami	-12.1445
▁frail	-12.1445
▁establishment	-12.1445
▁HELL	-12.1446
▁nap	-12.1447
▁deadpan	-12.1448
▁Biko	-12.1449
▁Kristin	-12.1451
▁Feel	-12.1452
▁moan	-12.1454
▁Heather	-12.1455
▁Brent	-12.1455
▁Milland	-12.1456
▁perceived	-12.1457
▁ample	-12.1461
punk	-12.1463
▁Admittedly	-12.1464
▁counting	-12.1469
▁bosses	-12.1474
▁gathered	-12.1478
▁Rip	-12.1488
▁TOO	-12.149
-10	-12.1491
▁heights	-12.15
▁drawings	-12.15
▁Tiger	-12.1501
▁archive	-12.1506
orro	-12.1508
▁Winter	-12.1508
mouth	-12.1512
95	-12.1512
▁chop	-12.1515
61	-12.1523
▁sheep	-12.1524
camera	-12.1525
bidden	-12.1527
East	-12.1527
jerk	-12.1527
▁Sounds	-12.1528
▁laying	-12.1529
▁500	-12.1531
gang	-12.1533
voiced	-12.1534
▁marketed	-12.1534
fast	-12.1534
▁awfulness	-12.1537
▁solved	-12.1539
▁Cummings	-12.154
riot	-12.1547
wee	-12.1549
▁curl	-12.1554
▁sec	-12.1555
▁bleed	-12.1561
change	-12.1562
▁interrupt	-12.1566
▁assembl	-12.1566
LES	-12.1566
▁Care	-12.1567
▁cancel	-12.1567
▁rejects	-12.1575
lack	-12.1575
wave	-12.1579
............	-12.1582
Casablanca	-12.1583
▁Beethoven	-12.1583
▁Cheadle	-12.1583
▁Gielgud	-12.1583
▁Keanu	-12.1583
▁Selleck	-12.1583
▁acquaintance	-12.1583
▁applause	-12.1583
▁blossom	-12.1583
▁confined	-12.1583
▁discipline	-12.1583
▁economy	-12.1583
▁gadget	-12.1583
▁impersonation	-12.1583
▁liberties	-12.1583
▁lizard	-12.1583
▁lurid	-12.1583
▁penalty	-12.1583
▁perpetual	-12.1583
▁pursuing	-12.1583
▁volunteer	-12.1583
▁/>9/10	-12.1583
▁Mafia	-12.1583
▁election	-12.1583
▁Myrna	-12.1583
▁closure	-12.1583
▁divine	-12.1583
▁telegraph	-12.1583
▁prostitution	-12.1583
▁prologue	-12.1583
▁Clara	-12.1583
▁transferred	-12.1584
▁Brazilian	-12.1584
▁admitted	-12.1584
▁sunny	-12.1584
▁Chick	-12.1586
▁ratio	-12.1587
▁Karate	-12.1588
▁Rickman	-12.1591
▁sinks	-12.1591
▁Leland	-12.1591
▁Class	-12.1591
▁improvised	-12.1592
▁Hands	-12.1595
▁sack	-12.1595
▁Whilst	-12.1598
▁relentlessly	-12.1599
ndra	-12.16
▁Dru	-12.16
▁colored	-12.1602
▁evolved	-12.1605
▁nerdy	-12.161
▁officially	-12.1614
▁socially	-12.1614
▁exam	-12.1614
▁Shore	-12.1616
▁flush	-12.1617
▁puzzled	-12.162
▁Open	-12.1621
▁labeled	-12.1622
▁ranting	-12.1623
▁Pierre	-12.1624
pra	-12.1624
▁Christy	-12.1628
▁aided	-12.1631
young	-12.1633
▁Crow	-12.1638
natured	-12.1638
▁hunted	-12.1639
▁entr	-12.1643
▁magically	-12.1645
▁flashing	-12.1647
▁hinted	-12.165
▁roughly	-12.165
▁bandit	-12.1656
▁Pee	-12.1657
▁Elliot	-12.1657
▁Isn	-12.1659
▁Lei	-12.1661
TRA	-12.1663
▁characteristic	-12.1664
▁ignor	-12.1664
▁openly	-12.1664
chu	-12.1665
Girl	-12.1666
Acting	-12.1666
wrote	-12.1666
Return	-12.1666
lter	-12.1666
Danny	-12.1667
▁voiced	-12.1669
nell	-12.1672
psy	-12.1673
bury	-12.1673
▁symbols	-12.1675
▁insulted	-12.1677
▁Rom	-12.1685
▁Bone	-12.1686
▁slower	-12.1687
▁bearing	-12.1689
lost	-12.1692
firm	-12.1695
GH	-12.1706
▁dock	-12.1706
▁unleash	-12.1706
▁Solo	-12.1714
pur	-12.1714
▁Cris	-12.1716
▁27	-12.172
▁retrospect	-12.1723
▁genetic	-12.1723
▁cigar	-12.1723
▁attain	-12.1723
▁Alexandra	-12.1723
▁Almighty	-12.1723
▁Hilary	-12.1723
▁Jacques	-12.1723
▁Loretta	-12.1723
▁Lubitsch	-12.1723
▁clarity	-12.1723
▁critter	-12.1723
▁pivotal	-12.1723
▁predicament	-12.1723
▁puzzling	-12.1723
▁restraint	-12.1723
▁transvestite	-12.1723
▁applies	-12.1723
▁foreshadow	-12.1723
▁Lestat	-12.1723
▁reprise	-12.1724
▁puke	-12.1724
▁padding	-12.1724
▁joking	-12.1724
▁discount	-12.1724
▁radiation	-12.1724
▁snob	-12.1724
▁Midler	-12.1724
▁Hannah	-12.1724
▁therapy	-12.1724
▁riff	-12.1725
▁predictably	-12.1725
Amato	-12.1725
▁mentor	-12.1725
▁recite	-12.1726
stock	-12.1727
▁Kingdom	-12.1727
▁traitor	-12.1727
▁App	-12.1729
▁preparation	-12.1729
▁amuse	-12.1729
▁marine	-12.1729
▁passive	-12.1731
▁lethal	-12.1732
▁Ji	-12.1734
▁domain	-12.1735
▁layer	-12.1736
▁progression	-12.1736
▁Faye	-12.1737
▁Officer	-12.1738
▁weekly	-12.1739
▁Elmer	-12.1739
▁deck	-12.1739
▁exc	-12.174
▁Doesn	-12.1741
▁tacked	-12.1741
▁penis	-12.1743
▁Ironically	-12.1745
▁bitchy	-12.1749
▁distinctly	-12.1749
▁raging	-12.1749
▁criticized	-12.1751
▁casually	-12.1751
▁indicat	-12.1751
▁slam	-12.1754
ctive	-12.1756
kee	-12.1758
▁lap	-12.1758
rail	-12.1759
pack	-12.1763
Bob	-12.1765
▁observations	-12.1765
hib	-12.1766
▁predicted	-12.1767
Doo	-12.1768
▁steaming	-12.1768
lean	-12.177
▁linear	-12.1773
▁weary	-12.178
▁filmography	-12.1789
▁Reeve	-12.1795
▁chops	-12.1796
lord	-12.1796
▁suggesting	-12.1798
▁insanely	-12.1802
wrenching	-12.1808
Actually	-12.1809
Charlie	-12.181
Alex	-12.181
through	-12.1812
Scott	-12.1813
Under	-12.1814
Robin	-12.1814
hai	-12.1816
▁warriors	-12.1818
▁Jud	-12.1824
▁targeted	-12.1825
Apart	-12.1826
loved	-12.1827
Part	-12.1832
reality	-12.1833
▁Ami	-12.1836
▁Emil	-12.1837
tale	-12.1837
▁paired	-12.184
▁lick	-12.1842
▁Ada	-12.1842
gard	-12.1845
▁indulge	-12.1852
▁Egg	-12.1855
Sound	-12.1856
ambi	-12.1858
Regard	-12.1861
▁Hale	-12.1866
▁Purple	-12.1866
▁abundance	-12.1866
▁corridor	-12.1866
▁pistol	-12.1866
▁Audrey	-12.1866
▁Capote	-12.1866
▁Chamberlain	-12.1866
▁DeMille	-12.1866
▁Edmund	-12.1866
▁Goldblum	-12.1866
▁LIKE	-12.1866
▁Patterson	-12.1866
▁Swanson	-12.1866
▁WRONG	-12.1866
▁brunette	-12.1866
▁deputy	-12.1866
▁detached	-12.1866
▁emperor	-12.1866
▁occupation	-12.1866
▁reception	-12.1866
▁sample	-12.1866
▁Additionally	-12.1866
▁Vivian	-12.1866
▁shelves	-12.1866
▁smirk	-12.1866
▁devour	-12.1866
▁/>2/10	-12.1866
▁Reiser	-12.1866
▁wrist	-12.1866
▁sparse	-12.1866
Slaughter	-12.1866
▁stamp	-12.1866
Deliverance	-12.1866
▁marathon	-12.1866
▁buffalo	-12.1867
▁spoiling	-12.1867
▁zany	-12.1867
▁gym	-12.1867
▁burden	-12.1867
▁compassionate	-12.1867
▁luckily	-12.1868
▁stoic	-12.1868
▁interplay	-12.1868
▁dragging	-12.1868
▁Passion	-12.1868
▁fleeting	-12.1869
▁Ramones	-12.1869
▁remainder	-12.1869
▁Stick	-12.1869
▁forgiveness	-12.1874
▁Coleman	-12.1875
▁hardened	-12.1879
rak	-12.1879
▁Journey	-12.188
▁irritated	-12.188
▁Lex	-12.1883
▁perverted	-12.1883
▁Omen	-12.1884
▁gown	-12.1887
▁Rest	-12.1887
▁skirt	-12.1889
▁principles	-12.1889
▁weirdo	-12.1893
▁projection	-12.1894
ribe	-12.1894
▁confirmed	-12.1895
▁occupied	-12.1896
▁Dien	-12.1898
▁halt	-12.1899
quite	-12.19
▁blade	-12.19
▁Martino	-12.1902
liness	-12.1903
▁Dear	-12.1903
ucco	-12.1909
color	-12.191
▁cursed	-12.1916
▁Demi	-12.1918
▁switching	-12.192
pity	-12.1922
▁Boss	-12.1923
▁quo	-12.1923
▁nick	-12.1928
▁gripe	-12.1936
▁pluck	-12.1937
▁hardest	-12.1938
▁Hercules	-12.1938
▁pranks	-12.1938
▁employer	-12.1942
▁sham	-12.1942
▁Pure	-12.1945
(!)	-12.1947
roy	-12.1951
literally	-12.1954
Sadly	-12.1954
Alice	-12.1955
social	-12.1955
wig	-12.1957
Plot	-12.196
ault	-12.1963
▁esp	-12.1964
arily	-12.1966
Gary	-12.1973
88	-12.1983
home	-12.1983
▁um	-12.1984
sort	-12.199
▁wan	-12.1994
Young	-12.1995
▁pervert	-12.1995
LESS	-12.1996
Fame	-12.1996
▁wage	-12.2002
race	-12.2004
▁graceful	-12.2009
▁Isabel	-12.201
▁arty	-12.2011
▁Govinda	-12.2011
▁Jagger	-12.2011
▁Kristofferson	-12.2011
▁SHOW	-12.2011
▁Sylvester	-12.2011
▁adventurous	-12.2011
▁chronological	-12.2011
▁dedication	-12.2011
▁escort	-12.2011
▁exaggeration	-12.2011
▁flamboyant	-12.2011
▁hollywood	-12.2011
▁infinitely	-12.2011
▁melancholy	-12.2011
▁merciless	-12.2011
▁overwrought	-12.2011
▁thirties	-12.2011
▁turtle	-12.2011
▁unnerving	-12.2011
▁uptight	-12.2011
▁violin	-12.2011
▁athlete	-12.2011
▁dialect	-12.2011
▁henchmen	-12.2011
Cannibal	-12.2011
▁Impact	-12.2011
▁anthology	-12.2011
▁outlandish	-12.2011
▁Shepard	-12.2011
▁Screenplay	-12.2011
▁McDonald	-12.2012
▁chock	-12.2012
▁Winston	-12.2012
▁straw	-12.2012
▁gossip	-12.2012
▁trek	-12.2012
▁Chevy	-12.2012
full	-12.2013
▁foster	-12.2013
▁Morning	-12.2013
▁apple	-12.2013
▁Letterman	-12.2013
▁crass	-12.2013
▁Grayson	-12.2013
▁grating	-12.2014
▁haircut	-12.2014
▁Clay	-12.2014
▁retelling	-12.2015
▁shave	-12.2015
▁reside	-12.2016
▁max	-12.2016
▁elementary	-12.2016
▁GET	-12.2017
▁Stock	-12.2018
▁Deanna	-12.2019
▁mustache	-12.202
▁Congo	-12.202
▁Plain	-12.202
▁dopey	-12.2021
NY	-12.2021
▁Sense	-12.2021
▁derived	-12.2022
▁Omar	-12.2023
▁sensitivity	-12.2023
▁Tiny	-12.2024
▁glossy	-12.2024
▁loner	-12.2026
▁environmental	-12.2026
▁courageous	-12.2028
▁collar	-12.203
▁magician	-12.203
Scarface	-12.2031
▁manipulated	-12.2032
▁mug	-12.2034
▁overnight	-12.2038
▁coolest	-12.204
▁overboard	-12.2044
▁Coen	-12.2045
▁severed	-12.2045
▁lawn	-12.205
▁stud	-12.206
wen	-12.2061
rape	-12.2062
aux	-12.2062
▁patent	-12.2065
▁seriousness	-12.2067
▁Bir	-12.207
▁astronauts	-12.2071
▁Cassel	-12.2072
▁Norma	-12.2076
▁Spy	-12.2089
▁begun	-12.2091
FT	-12.2091
developed	-12.2096
release	-12.2097
albeit	-12.2101
murder	-12.2101
appreciated	-12.2101
doubt	-12.2101
Everyone	-12.2103
control	-12.2103
million	-12.2104
help	-12.2107
fold	-12.2111
▁Cass	-12.2117
lau	-12.2117
▁plea	-12.2124
▁sucking	-12.2125
MON	-12.2126
▁Came	-12.2136
ipping	-12.2136
▁Soldiers	-12.2137
▁Demon	-12.2137
▁Slo	-12.2138
▁cock	-12.214
▁propel	-12.214
▁accuse	-12.2142
walker	-12.2144
later	-12.2148
▁sup	-12.2154
semblance	-12.2155
workers	-12.2156
▁incidental	-12.2157
▁whim	-12.2158
▁DeVito	-12.2158
▁Fassbinder	-12.2158
▁Kazan	-12.2158
▁Lampoon	-12.2158
▁McDowell	-12.2158
▁Thief	-12.2158
▁fiasco	-12.2158
▁peasant	-12.2158
▁quibble	-12.2158
ordinate	-12.2158
▁Arizona	-12.2158
▁Depression	-12.2158
▁Fairbanks	-12.2158
▁Soderbergh	-12.2158
▁arrogance	-12.2158
▁decency	-12.2158
▁deception	-12.2158
▁disillusion	-12.2158
▁overshadowed	-12.2158
▁revolving	-12.2158
▁scheming	-12.2158
▁temptation	-12.2158
▁Berry	-12.2158
▁infectious	-12.2158
▁Rhys	-12.2158
▁obscene	-12.2158
▁hijack	-12.2158
▁Marilyn	-12.2158
▁denied	-12.2159
▁tissue	-12.2159
▁Ernie	-12.2159
▁Seattle	-12.2159
▁stirring	-12.2159
▁Sgt	-12.2159
▁faux	-12.2159
▁arrangement	-12.2159
▁Angelina	-12.2159
▁Britney	-12.2159
▁aspire	-12.216
▁Vader	-12.216
▁Edison	-12.216
▁OVER	-12.2161
▁delay	-12.2161
▁skipping	-12.2161
▁Keller	-12.2161
▁Apple	-12.2162
▁underdog	-12.2162
▁Katie	-12.2163
▁stance	-12.2163
▁villagers	-12.2164
▁runaway	-12.2164
▁Glenda	-12.2165
▁scattered	-12.2165
▁barber	-12.2165
▁robotic	-12.2165
▁consumed	-12.2166
▁Gulliver	-12.2167
▁proportions	-12.2168
▁Surprisingly	-12.2169
▁sarcasm	-12.2171
▁Seinfeld	-12.2173
▁Silverman	-12.2175
▁revolting	-12.2176
▁reluctantly	-12.218
▁stabbing	-12.218
ALLY	-12.2181
umbling	-12.2182
TAL	-12.2185
▁Spoiler	-12.2187
▁Toby	-12.2191
▁adequately	-12.2191
Mc	-12.2193
▁proclaim	-12.22
player	-12.2201
eva	-12.2202
▁Bai	-12.2208
Set	-12.2208
hhh	-12.2212
▁Midnight	-12.2212
ference	-12.2218
rah	-12.2221
Panic	-12.2222
▁erase	-12.2227
▁tricked	-12.2227
▁placement	-12.223
▁masked	-12.2231
▁coaster	-12.2237
▁crashed	-12.2246
▁Prof	-12.2247
worker	-12.2248
Barbara	-12.225
centered	-12.2251
depend	-12.2251
▁talentless	-12.2251
actresses	-12.2253
▁numb	-12.2254
Carl	-12.2257
western	-12.2261
▁clouds	-12.2262
store	-12.2265
▁novelist	-12.2265
Rex	-12.2266
Really	-12.2266
bby	-12.227
▁Coming	-12.2276
▁MAR	-12.2289
▁Prov	-12.2289
▁exhaust	-12.2291
[...]
